unsigned char converted_model_tflite[] = {
  0x1c, 0x00, 0x00, 0x00, 0x54, 0x46, 0x4c, 0x33, 0x14, 0x00, 0x20, 0x00,
  0x1c, 0x00, 0x18, 0x00, 0x14, 0x00, 0x10, 0x00, 0x0c, 0x00, 0x00, 0x00,
  0x08, 0x00, 0x04, 0x00, 0x14, 0x00, 0x00, 0x00, 0x1c, 0x00, 0x00, 0x00,
  0x8c, 0x00, 0x00, 0x00, 0x0c, 0x01, 0x00, 0x00, 0xbc, 0x1c, 0x00, 0x00,
  0xcc, 0x1c, 0x00, 0x00, 0xb0, 0x2e, 0x00, 0x00, 0x03, 0x00, 0x00, 0x00,
  0x01, 0x00, 0x00, 0x00, 0x04, 0x00, 0x00, 0x00, 0x2a, 0xe2, 0xff, 0xff,
  0x0c, 0x00, 0x00, 0x00, 0x1c, 0x00, 0x00, 0x00, 0x3c, 0x00, 0x00, 0x00,
  0x0f, 0x00, 0x00, 0x00, 0x73, 0x65, 0x72, 0x76, 0x69, 0x6e, 0x67, 0x5f,
  0x64, 0x65, 0x66, 0x61, 0x75, 0x6c, 0x74, 0x00, 0x01, 0x00, 0x00, 0x00,
  0x04, 0x00, 0x00, 0x00, 0x68, 0xff, 0xff, 0xff, 0x14, 0x00, 0x00, 0x00,
  0x04, 0x00, 0x00, 0x00, 0x08, 0x00, 0x00, 0x00, 0x6f, 0x75, 0x74, 0x70,
  0x75, 0x74, 0x5f, 0x30, 0x00, 0x00, 0x00, 0x00, 0x01, 0x00, 0x00, 0x00,
  0x04, 0x00, 0x00, 0x00, 0xce, 0xe3, 0xff, 0xff, 0x04, 0x00, 0x00, 0x00,
  0x0c, 0x00, 0x00, 0x00, 0x6b, 0x65, 0x72, 0x61, 0x73, 0x5f, 0x74, 0x65,
  0x6e, 0x73, 0x6f, 0x72, 0x00, 0x00, 0x00, 0x00, 0x03, 0x00, 0x00, 0x00,
  0x5c, 0x00, 0x00, 0x00, 0x2c, 0x00, 0x00, 0x00, 0x04, 0x00, 0x00, 0x00,
  0xb8, 0xff, 0xff, 0xff, 0x18, 0x00, 0x00, 0x00, 0x04, 0x00, 0x00, 0x00,
  0x13, 0x00, 0x00, 0x00, 0x43, 0x4f, 0x4e, 0x56, 0x45, 0x52, 0x53, 0x49,
  0x4f, 0x4e, 0x5f, 0x4d, 0x45, 0x54, 0x41, 0x44, 0x41, 0x54, 0x41, 0x00,
  0xdc, 0xff, 0xff, 0xff, 0x17, 0x00, 0x00, 0x00, 0x04, 0x00, 0x00, 0x00,
  0x13, 0x00, 0x00, 0x00, 0x6d, 0x69, 0x6e, 0x5f, 0x72, 0x75, 0x6e, 0x74,
  0x69, 0x6d, 0x65, 0x5f, 0x76, 0x65, 0x72, 0x73, 0x69, 0x6f, 0x6e, 0x00,
  0x08, 0x00, 0x0c, 0x00, 0x08, 0x00, 0x04, 0x00, 0x08, 0x00, 0x00, 0x00,
  0x16, 0x00, 0x00, 0x00, 0x04, 0x00, 0x00, 0x00, 0x13, 0x00, 0x00, 0x00,
  0x6d, 0x69, 0x6e, 0x5f, 0x72, 0x75, 0x6e, 0x74, 0x69, 0x6d, 0x65, 0x5f,
  0x76, 0x65, 0x72, 0x73, 0x69, 0x6f, 0x6e, 0x00, 0x19, 0x00, 0x00, 0x00,
  0xac, 0x1b, 0x00, 0x00, 0xa4, 0x1b, 0x00, 0x00, 0x8c, 0x1b, 0x00, 0x00,
  0x6c, 0x1b, 0x00, 0x00, 0x58, 0x1b, 0x00, 0x00, 0x20, 0x1b, 0x00, 0x00,
  0x70, 0x1a, 0x00, 0x00, 0xf0, 0x02, 0x00, 0x00, 0xc8, 0x02, 0x00, 0x00,
  0x74, 0x01, 0x00, 0x00, 0x4c, 0x01, 0x00, 0x00, 0x04, 0x01, 0x00, 0x00,
  0xfc, 0x00, 0x00, 0x00, 0xf4, 0x00, 0x00, 0x00, 0xec, 0x00, 0x00, 0x00,
  0xe4, 0x00, 0x00, 0x00, 0xdc, 0x00, 0x00, 0x00, 0xd4, 0x00, 0x00, 0x00,
  0xcc, 0x00, 0x00, 0x00, 0xc4, 0x00, 0x00, 0x00, 0xbc, 0x00, 0x00, 0x00,
  0xb4, 0x00, 0x00, 0x00, 0x94, 0x00, 0x00, 0x00, 0x74, 0x00, 0x00, 0x00,
  0x04, 0x00, 0x00, 0x00, 0xd6, 0xe4, 0xff, 0xff, 0x04, 0x00, 0x00, 0x00,
  0x60, 0x00, 0x00, 0x00, 0x0c, 0x00, 0x00, 0x00, 0x08, 0x00, 0x0e, 0x00,
  0x08, 0x00, 0x04, 0x00, 0x08, 0x00, 0x00, 0x00, 0x10, 0x00, 0x00, 0x00,
  0x28, 0x00, 0x00, 0x00, 0x00, 0x00, 0x06, 0x00, 0x08, 0x00, 0x04, 0x00,
  0x06, 0x00, 0x00, 0x00, 0x04, 0x00, 0x00, 0x00, 0x01, 0x00, 0x00, 0x00,
  0xeb, 0x03, 0x00, 0x00, 0x0c, 0x00, 0x18, 0x00, 0x14, 0x00, 0x10, 0x00,
  0x0c, 0x00, 0x04, 0x00, 0x0c, 0x00, 0x00, 0x00, 0x81, 0x93, 0x44, 0xb1,
  0x4a, 0x62, 0xca, 0x2d, 0x01, 0x00, 0x00, 0x00, 0x02, 0x00, 0x00, 0x00,
  0x04, 0x00, 0x00, 0x00, 0x06, 0x00, 0x00, 0x00, 0x32, 0x2e, 0x31, 0x37,
  0x2e, 0x30, 0x00, 0x00, 0x42, 0xe5, 0xff, 0xff, 0x04, 0x00, 0x00, 0x00,
  0x10, 0x00, 0x00, 0x00, 0x00, 0x00, 0x00, 0x00, 0x00, 0x00, 0x00, 0x00,
  0x00, 0x00, 0x00, 0x00, 0x00, 0x00, 0x00, 0x00, 0x5e, 0xe5, 0xff, 0xff,
  0x04, 0x00, 0x00, 0x00, 0x10, 0x00, 0x00, 0x00, 0x32, 0x2e, 0x32, 0x2e,
  0x30, 0x00, 0x00, 0x00, 0x00, 0x00, 0x00, 0x00, 0x00, 0x00, 0x00, 0x00,
  0x9c, 0xd3, 0xff, 0xff, 0xa0, 0xd3, 0xff, 0xff, 0xa4, 0xd3, 0xff, 0xff,
  0xa8, 0xd3, 0xff, 0xff, 0xac, 0xd3, 0xff, 0xff, 0xb0, 0xd3, 0xff, 0xff,
  0xb4, 0xd3, 0xff, 0xff, 0xb8, 0xd3, 0xff, 0xff, 0xbc, 0xd3, 0xff, 0xff,
  0xc0, 0xd3, 0xff, 0xff, 0xa2, 0xe5, 0xff, 0xff, 0x04, 0x00, 0x00, 0x00,
  0x36, 0x00, 0x00, 0x00, 0x2f, 0xed, 0x7f, 0x77, 0x73, 0x2e, 0x98, 0xc2,
  0xb7, 0x44, 0x7f, 0xe6, 0x30, 0x6d, 0x33, 0x31, 0xd4, 0x3d, 0x50, 0x09,
  0x2c, 0x6a, 0x6d, 0x7f, 0x0a, 0x67, 0x5c, 0x58, 0x17, 0xeb, 0x09, 0xa6,
  0x81, 0x1c, 0x81, 0xc1, 0xed, 0x9a, 0xc1, 0x43, 0x7f, 0x1b, 0x3d, 0xef,
  0xf8, 0xdb, 0x33, 0x0b, 0xd6, 0xee, 0x24, 0x7f, 0x94, 0x47, 0x00, 0x00,
  0xe6, 0xe5, 0xff, 0xff, 0x04, 0x00, 0x00, 0x00, 0x18, 0x00, 0x00, 0x00,
  0x75, 0xff, 0xff, 0xff, 0x02, 0x00, 0x00, 0x00, 0x01, 0x00, 0x00, 0x00,
  0x12, 0x00, 0x00, 0x00, 0x0c, 0x00, 0x00, 0x00, 0x00, 0x00, 0x00, 0x00,
  0x0a, 0xe6, 0xff, 0xff, 0x04, 0x00, 0x00, 0x00, 0x44, 0x01, 0x00, 0x00,
  0xb0, 0x2a, 0x0a, 0xf6, 0x18, 0x07, 0xa9, 0x15, 0x43, 0xb2, 0x29, 0x0b,
  0xb2, 0x06, 0x20, 0xf1, 0xff, 0xe8, 0xfa, 0x0e, 0xdd, 0x02, 0xf4, 0x04,
  0xbd, 0x16, 0x24, 0x0b, 0x06, 0x9e, 0x93, 0xf9, 0xd6, 0x10, 0xcd, 0xfc,
  0xd7, 0xf2, 0xd8, 0x39, 0x40, 0xf4, 0x25, 0xf3, 0xc4, 0xe6, 0xd2, 0x81,
  0x54, 0xec, 0x0c, 0x02, 0x13, 0xe8, 0xdb, 0xd8, 0xd3, 0x81, 0xf4, 0x03,
  0xf7, 0xf9, 0x18, 0xfa, 0x27, 0xe6, 0xd7, 0xcb, 0x17, 0xbc, 0x27, 0x1a,
  0xfe, 0x13, 0xf1, 0x3c, 0x07, 0xdc, 0xd8, 0x29, 0x17, 0x48, 0x0f, 0xf4,
  0xe0, 0x1f, 0x03, 0x15, 0xff, 0x1c, 0xeb, 0x14, 0xf9, 0x38, 0x12, 0xd3,
  0xf0, 0xef, 0x16, 0x19, 0xdb, 0xfa, 0xdc, 0x01, 0x2e, 0xe9, 0x1b, 0xf7,
  0xf6, 0xfc, 0x0d, 0x12, 0xfa, 0xfb, 0x03, 0x0e, 0xfb, 0x04, 0xfe, 0x07,
  0xe5, 0xfe, 0x17, 0x12, 0xf9, 0x03, 0x02, 0x0c, 0x17, 0x03, 0xe6, 0xc1,
  0x02, 0xf0, 0xf2, 0x08, 0xf4, 0x1f, 0x0e, 0xf7, 0xf2, 0x0e, 0xd1, 0xe8,
  0xee, 0xdf, 0xe6, 0xc9, 0x81, 0xe0, 0xed, 0xfb, 0x10, 0x21, 0xf8, 0x22,
  0x0d, 0x17, 0x11, 0xdb, 0x0c, 0x22, 0xce, 0x02, 0x5e, 0xcb, 0xc9, 0xc9,
  0xdd, 0xd2, 0x04, 0xf2, 0x8c, 0x11, 0x92, 0x58, 0x36, 0x3f, 0xbd, 0xdc,
  0x2b, 0x4d, 0x2c, 0xb9, 0xb4, 0x19, 0x0e, 0xe2, 0xf8, 0xfd, 0xe7, 0xf6,
  0x14, 0xa7, 0xa9, 0x39, 0x81, 0x0a, 0xda, 0xdf, 0xba, 0xed, 0x27, 0x1d,
  0xd2, 0x34, 0x06, 0x16, 0x37, 0xe0, 0xea, 0x23, 0xe1, 0xa0, 0x5f, 0xf7,
  0xa9, 0x3b, 0x59, 0xaf, 0x1e, 0xf8, 0x22, 0xb7, 0xff, 0xa4, 0xba, 0x13,
  0x5d, 0x11, 0xec, 0x23, 0xd6, 0xd0, 0x0a, 0x24, 0x22, 0x81, 0x0a, 0x30,
  0x23, 0x2a, 0x38, 0x85, 0x0e, 0x04, 0x32, 0xe9, 0xb8, 0x37, 0xde, 0x26,
  0xd4, 0xf3, 0xcb, 0xd4, 0x50, 0xed, 0xcf, 0x0d, 0xed, 0xb1, 0xeb, 0x94,
  0x30, 0xd0, 0xb7, 0x0d, 0x2c, 0x39, 0x8c, 0xac, 0x03, 0xe2, 0x1a, 0x2c,
  0x1b, 0x90, 0x8f, 0xf9, 0x1f, 0x0f, 0x1b, 0xc2, 0xc5, 0xcd, 0x2c, 0x5d,
  0xc9, 0x43, 0x16, 0xcd, 0xcb, 0x25, 0x99, 0xec, 0x0d, 0xd2, 0x24, 0x18,
  0x00, 0x45, 0x21, 0xee, 0x30, 0x38, 0xb7, 0x06, 0x42, 0x92, 0xcb, 0xd8,
  0xdd, 0x15, 0x01, 0x1e, 0x10, 0xbf, 0x95, 0xf3, 0x22, 0x7f, 0xfe, 0x17,
  0x5a, 0xe7, 0xff, 0xff, 0x04, 0x00, 0x00, 0x00, 0x18, 0x00, 0x00, 0x00,
  0xfe, 0xff, 0xff, 0xff, 0x08, 0x00, 0x00, 0x00, 0x27, 0x00, 0x00, 0x00,
  0x28, 0x00, 0x00, 0x00, 0xcb, 0xff, 0xff, 0xff, 0x01, 0x00, 0x00, 0x00,
  0x7e, 0xe7, 0xff, 0xff, 0x04, 0x00, 0x00, 0x00, 0x70, 0x17, 0x00, 0x00,
  0xe8, 0xc6, 0xde, 0x25, 0xe9, 0x01, 0xa3, 0x39, 0xcc, 0xe8, 0x21, 0xdf,
  0x32, 0xf3, 0x12, 0xff, 0xdd, 0x3b, 0xe3, 0xf4, 0xee, 0x37, 0xf3, 0x13,
  0xb5, 0x1e, 0xe4, 0xf7, 0xe7, 0xfe, 0x25, 0xf2, 0xd2, 0x2b, 0x1f, 0x19,
  0xec, 0xe0, 0xdf, 0x36, 0x18, 0xed, 0xea, 0xd3, 0x81, 0xcd, 0xd6, 0xee,
  0x16, 0xb3, 0xe6, 0xef, 0x0d, 0xe9, 0xf8, 0xe5, 0xc6, 0xd7, 0x27, 0xc2,
  0xf0, 0x06, 0xf2, 0x9b, 0xbf, 0xd6, 0xec, 0xa1, 0xff, 0xd1, 0x1f, 0xf2,
  0xe5, 0x4d, 0xfe, 0x9e, 0xdd, 0x05, 0xbb, 0x3d, 0x25, 0xea, 0xe8, 0x1a,
  0x12, 0x45, 0xe6, 0xc9, 0xec, 0xef, 0x2d, 0xe5, 0x27, 0x2b, 0xf7, 0xd1,
  0x1f, 0x21, 0x40, 0x1b, 0x0b, 0xda, 0x69, 0x00, 0x29, 0x3a, 0x27, 0x00,
  0x5b, 0x16, 0x1a, 0x1c, 0x0f, 0x05, 0x1d, 0xfc, 0x03, 0xe6, 0xf5, 0x15,
  0xd5, 0x85, 0xfe, 0xe4, 0x2e, 0xfb, 0x9a, 0xa9, 0xd9, 0x05, 0x07, 0xe5,
  0xba, 0xc8, 0x12, 0xdc, 0x00, 0xc6, 0x17, 0xee, 0xeb, 0xf8, 0x1d, 0xb6,
  0x04, 0x0b, 0xfb, 0xe0, 0xf7, 0xb5, 0x07, 0xef, 0xe8, 0xf9, 0xaf, 0x0f,
  0x0c, 0x0f, 0x07, 0x15, 0xde, 0xfc, 0x23, 0xe4, 0x0d, 0x26, 0x18, 0x07,
  0x16, 0x29, 0x2c, 0x2c, 0xe5, 0x0d, 0x63, 0x22, 0x0c, 0x35, 0xc7, 0xe3,
  0x02, 0x0b, 0xd5, 0xff, 0xc9, 0xfa, 0x00, 0xfc, 0xf2, 0x2a, 0x0f, 0x27,
  0xf2, 0xf0, 0x12, 0xf2, 0xd4, 0xf7, 0x34, 0x0d, 0xea, 0xf8, 0xf5, 0xb0,
  0xfe, 0x09, 0x2d, 0xfa, 0xfe, 0xdc, 0x04, 0x15, 0xd2, 0xf3, 0x06, 0x00,
  0xc0, 0x21, 0xec, 0xfa, 0xe2, 0x25, 0xa9, 0xeb, 0xcd, 0xd9, 0xd1, 0x28,
  0xc4, 0x18, 0xea, 0x0a, 0xbf, 0xff, 0xae, 0xe3, 0x0a, 0x14, 0xd7, 0xf9,
  0x17, 0xd2, 0x89, 0x0a, 0x05, 0x04, 0xb7, 0x10, 0xf3, 0x1a, 0x11, 0x16,
  0xfe, 0x2b, 0x9b, 0x25, 0xfd, 0x12, 0xd8, 0x10, 0xf4, 0x39, 0xf8, 0x18,
  0xc9, 0xfc, 0xea, 0xce, 0xfa, 0x20, 0x0b, 0xbd, 0x81, 0x0e, 0x07, 0xf8,
  0xa9, 0xd0, 0xdd, 0x11, 0xf9, 0x16, 0xd0, 0x19, 0x90, 0xbb, 0xde, 0x0e,
  0xdf, 0x18, 0xe0, 0x07, 0xf8, 0x3a, 0xe4, 0x3e, 0xe6, 0xba, 0xec, 0x02,
  0xeb, 0x03, 0xe8, 0xe2, 0xb9, 0x08, 0xf0, 0xd3, 0xdc, 0xef, 0xb8, 0x26,
  0xec, 0x02, 0x0b, 0xfc, 0xde, 0xfb, 0xe6, 0xfe, 0x2c, 0xfb, 0xe6, 0xe1,
  0xff, 0x12, 0x3e, 0x4a, 0xd3, 0xc5, 0xcc, 0xea, 0xf0, 0xf3, 0x13, 0x08,
  0xbc, 0xfb, 0xc5, 0xf2, 0xed, 0x01, 0x83, 0x0d, 0x17, 0x14, 0x06, 0xf9,
  0xad, 0x17, 0x0f, 0xd4, 0xda, 0xf9, 0x81, 0x0e, 0x21, 0xe1, 0xdf, 0x17,
  0x18, 0xfc, 0xe1, 0x24, 0xf7, 0x09, 0xbc, 0x0c, 0xf4, 0x15, 0x06, 0xe8,
  0xd8, 0xf1, 0xf0, 0x04, 0x03, 0xf6, 0xcf, 0x06, 0xf8, 0x15, 0xf3, 0xf8,
  0xb6, 0x20, 0xea, 0xfb, 0xec, 0x06, 0x03, 0xbd, 0xb5, 0xfe, 0x0d, 0xd9,
  0xdc, 0xd8, 0xfa, 0xf5, 0x08, 0xba, 0xad, 0x01, 0xb1, 0xab, 0xd1, 0xcd,
  0xe3, 0x0b, 0xd2, 0xc9, 0xf2, 0xec, 0x04, 0x29, 0x06, 0xc5, 0xdf, 0xca,
  0xfe, 0xfd, 0xfa, 0xe5, 0xeb, 0xf3, 0x0c, 0x90, 0xf9, 0xe9, 0x04, 0xb6,
  0x1e, 0x30, 0xef, 0xf1, 0x02, 0xf4, 0x16, 0x07, 0xf1, 0x00, 0xf4, 0xd4,
  0x09, 0x15, 0x09, 0xee, 0xda, 0xb1, 0xe3, 0x35, 0xff, 0xb1, 0xef, 0xfd,
  0x49, 0x1c, 0xef, 0xfe, 0xf4, 0x0f, 0xe2, 0x0b, 0x19, 0xf0, 0xe4, 0x11,
  0x40, 0x15, 0x18, 0xae, 0x08, 0x4b, 0x2c, 0x39, 0x46, 0xff, 0x4e, 0x5b,
  0x0d, 0x20, 0x5c, 0xf4, 0x1a, 0x0b, 0x21, 0xff, 0xd1, 0xdb, 0xe5, 0xf7,
  0xd4, 0xed, 0x3a, 0xf6, 0xf8, 0xf9, 0xe7, 0x2d, 0x1c, 0x2e, 0x4b, 0xfb,
  0x10, 0x4d, 0x22, 0xe6, 0x1b, 0x01, 0xf7, 0xfd, 0x0a, 0xea, 0xdb, 0x25,
  0x10, 0x00, 0x0b, 0xe2, 0xfe, 0x2f, 0x0c, 0x16, 0x1f, 0x0b, 0x04, 0xf8,
  0xff, 0x09, 0x26, 0xe5, 0xde, 0x2a, 0x7f, 0x07, 0x32, 0x05, 0x16, 0x05,
  0x2b, 0x22, 0x2f, 0x3a, 0x0f, 0x11, 0x06, 0x1b, 0xf4, 0x19, 0x1a, 0xf8,
  0x27, 0x25, 0x1e, 0x2d, 0x0c, 0xe4, 0xdf, 0x08, 0x10, 0x0c, 0x03, 0x16,
  0xff, 0xe0, 0x02, 0x24, 0xef, 0x19, 0x32, 0x15, 0x09, 0x2f, 0x0f, 0x9a,
  0x58, 0x0d, 0x1b, 0x22, 0xf4, 0x1b, 0xfb, 0x37, 0x44, 0x70, 0xf5, 0x10,
  0x39, 0xfe, 0x14, 0x0a, 0x19, 0xe9, 0x1f, 0x1f, 0xeb, 0x61, 0x09, 0x0c,
  0xf5, 0xb7, 0xde, 0x2b, 0xd6, 0x1d, 0xf5, 0x38, 0xfa, 0x1f, 0xfe, 0xda,
  0xf9, 0x04, 0x34, 0x02, 0xf7, 0xe0, 0xb4, 0xea, 0x44, 0x28, 0x02, 0xfc,
  0xf8, 0x1f, 0x24, 0x11, 0xda, 0xb3, 0x2a, 0xa2, 0xda, 0xf6, 0xf8, 0x16,
  0xde, 0xe6, 0x1a, 0x3d, 0xee, 0xad, 0xa1, 0xd4, 0x1f, 0xb1, 0x9e, 0x81,
  0xf9, 0xe1, 0x16, 0xc6, 0xe3, 0x97, 0xaf, 0xe3, 0x29, 0xe4, 0xae, 0xc3,
  0x1e, 0xdd, 0xca, 0xfd, 0xfc, 0x01, 0xf9, 0xda, 0xf3, 0xf3, 0xea, 0xea,
  0xd7, 0x01, 0xfd, 0xb3, 0xac, 0x1f, 0x90, 0x14, 0x01, 0x00, 0xe4, 0xb3,
  0xc7, 0xf1, 0x26, 0xe5, 0xa8, 0xc9, 0x10, 0xcf, 0xc7, 0xff, 0xfe, 0x0a,
  0xf9, 0xfa, 0xf6, 0x03, 0xeb, 0x11, 0x1e, 0x1a, 0xed, 0xe9, 0xf5, 0x20,
  0xe6, 0x33, 0x29, 0x21, 0x0c, 0x13, 0xa8, 0xee, 0x5a, 0x58, 0xf4, 0x39,
  0x0d, 0xef, 0xf6, 0x13, 0x00, 0x1c, 0xd6, 0x02, 0xed, 0x10, 0xe8, 0x10,
  0xc4, 0xf6, 0xd3, 0x9f, 0xbb, 0xfe, 0xe2, 0x02, 0xfc, 0xe5, 0xd6, 0x2c,
  0xdb, 0x40, 0xf8, 0xf6, 0x06, 0x25, 0x15, 0xb8, 0xf2, 0xf9, 0xfc, 0x15,
  0xe2, 0xe9, 0xfa, 0x08, 0xd1, 0x06, 0xd2, 0x38, 0x32, 0xf8, 0xed, 0x27,
  0xda, 0x17, 0x24, 0x38, 0x09, 0x1d, 0xe1, 0x12, 0x3a, 0x35, 0xe1, 0xde,
  0x07, 0xd0, 0x0b, 0x02, 0x02, 0xf6, 0xf6, 0x1d, 0x21, 0x12, 0xfb, 0x0a,
  0xde, 0x1c, 0x13, 0x0c, 0xfd, 0xdb, 0x12, 0x13, 0x1c, 0x14, 0x0a, 0xee,
  0xd3, 0xfb, 0x26, 0x12, 0x18, 0xdd, 0x10, 0xea, 0xb5, 0xfb, 0xff, 0xf4,
  0xba, 0x0d, 0xf3, 0x26, 0xff, 0xdc, 0xbe, 0x1f, 0xd5, 0xd4, 0xca, 0xe7,
  0x81, 0x13, 0x0f, 0xf0, 0xd1, 0xf7, 0xbd, 0x0a, 0xee, 0x03, 0xde, 0x13,
  0x1a, 0xc7, 0xa5, 0xf4, 0x01, 0xf3, 0xd8, 0xea, 0xfe, 0xf9, 0xf2, 0xdf,
  0xd4, 0x15, 0xc4, 0xc1, 0xe1, 0xdb, 0xdc, 0x14, 0xf1, 0x05, 0xfc, 0xea,
  0x13, 0x22, 0xfe, 0xfb, 0x01, 0xeb, 0x26, 0x8b, 0xdc, 0xfa, 0xfe, 0x0f,
  0x09, 0xfe, 0x04, 0x18, 0xf1, 0xbf, 0x05, 0xe4, 0xc9, 0xe9, 0xe5, 0xdf,
  0x37, 0x22, 0xef, 0xc2, 0xed, 0xe6, 0x1a, 0xff, 0xf3, 0x1e, 0xd2, 0xf8,
  0x1c, 0xf9, 0xe9, 0x2a, 0x0a, 0xf7, 0xd4, 0x0c, 0xc6, 0x1f, 0x00, 0xe9,
  0x08, 0xc9, 0xca, 0xc4, 0xde, 0xe0, 0x97, 0xf2, 0xd4, 0xf5, 0xd0, 0xfa,
  0x97, 0x14, 0xa5, 0xd0, 0xf6, 0xd1, 0x1b, 0xdd, 0xc1, 0xf0, 0x2e, 0xf1,
  0xc6, 0x1c, 0x20, 0xec, 0x1f, 0xce, 0x13, 0xb0, 0x81, 0xbc, 0x01, 0xe8,
  0x0e, 0xf9, 0x18, 0xfd, 0xe9, 0xe0, 0xfe, 0xf3, 0xd7, 0xdd, 0xfa, 0xea,
  0x29, 0xcb, 0x1a, 0x08, 0xe9, 0x08, 0x0d, 0xcf, 0x26, 0xfa, 0xeb, 0x13,
  0xde, 0x06, 0xe0, 0xad, 0xd1, 0x07, 0x02, 0x20, 0x06, 0xc1, 0xd3, 0x22,
  0x0f, 0x3a, 0x0f, 0xdb, 0xa8, 0xe6, 0xd8, 0x09, 0x32, 0xec, 0xeb, 0xf7,
  0x0a, 0x0b, 0x17, 0xbc, 0x08, 0xf8, 0x2a, 0x17, 0x23, 0xde, 0x2e, 0xee,
  0x20, 0x2d, 0x41, 0x04, 0x22, 0xd6, 0x1a, 0x12, 0x2d, 0xf1, 0xfd, 0xb5,
  0xfd, 0x14, 0x42, 0x2f, 0xf6, 0x08, 0x00, 0x14, 0x21, 0x24, 0x1a, 0xed,
  0xfe, 0xa2, 0x20, 0x0d, 0x1e, 0xa0, 0x1e, 0xc5, 0x2a, 0x0d, 0x15, 0xa3,
  0xe4, 0xa2, 0x27, 0xea, 0x08, 0xd0, 0xc5, 0xf3, 0x0c, 0xb1, 0xcb, 0xe0,
  0x11, 0x09, 0x1b, 0xd7, 0xdc, 0x08, 0xa0, 0xeb, 0x1d, 0xee, 0xc4, 0x0c,
  0xd0, 0x3c, 0x23, 0xe0, 0x27, 0x1a, 0x96, 0x4a, 0x27, 0xce, 0x22, 0x6f,
  0xd0, 0x22, 0xce, 0xcd, 0xe6, 0xe6, 0x00, 0x01, 0xb0, 0xce, 0xe6, 0x1d,
  0xd8, 0x0f, 0xd2, 0xf8, 0x19, 0x26, 0xd6, 0x55, 0xd4, 0xde, 0x2b, 0x0a,
  0x1e, 0x32, 0xeb, 0xdb, 0xfc, 0x1f, 0xfb, 0x1e, 0x38, 0xe3, 0xee, 0xf6,
  0x10, 0x13, 0xfb, 0xf5, 0xf1, 0x18, 0x03, 0x02, 0xf2, 0x18, 0xfd, 0x2a,
  0x3c, 0x01, 0xef, 0xf8, 0xef, 0x03, 0x7f, 0x18, 0x0c, 0x04, 0x09, 0x1c,
  0x0c, 0x0a, 0x15, 0xeb, 0xfb, 0xf5, 0x08, 0x13, 0xff, 0xf2, 0x05, 0x24,
  0x19, 0x13, 0x43, 0xfc, 0xd3, 0x16, 0x08, 0xf6, 0x35, 0x04, 0xde, 0x03,
  0xf8, 0xe5, 0x20, 0x0a, 0xdc, 0x26, 0xe4, 0x30, 0xf5, 0x20, 0x1a, 0xc7,
  0x34, 0x16, 0x15, 0x01, 0xeb, 0xfc, 0x13, 0x01, 0x10, 0x2a, 0xf2, 0x1d,
  0x27, 0x25, 0x14, 0x12, 0xf7, 0x1b, 0x17, 0x1e, 0x24, 0x36, 0xf1, 0x31,
  0xb8, 0xd9, 0x23, 0x89, 0xe4, 0x1f, 0xfb, 0x4f, 0x06, 0xbe, 0x0c, 0xf1,
  0xa4, 0x19, 0x0f, 0x0a, 0xd3, 0x04, 0xde, 0x5f, 0xf7, 0xc0, 0x3d, 0x07,
  0xd2, 0x68, 0x30, 0x89, 0x3b, 0x68, 0x81, 0x0f, 0x97, 0xb3, 0xda, 0x0f,
  0x0f, 0x19, 0x93, 0xbe, 0xd9, 0x07, 0xab, 0xd9, 0xa5, 0xbb, 0x0c, 0x2a,
  0x1a, 0x39, 0xe1, 0xd0, 0x09, 0x0f, 0x46, 0x5f, 0x3a, 0xef, 0x25, 0x02,
  0x09, 0x3f, 0x06, 0xf4, 0x0d, 0x07, 0x24, 0x13, 0xf7, 0x2b, 0x17, 0x2a,
  0x19, 0xee, 0xf0, 0x1c, 0xff, 0x2a, 0xf9, 0xee, 0x01, 0xec, 0x1a, 0x11,
  0x4d, 0xf3, 0x37, 0xe9, 0x29, 0xd3, 0x13, 0x16, 0x10, 0x26, 0x2c, 0xac,
  0x1a, 0xc8, 0x19, 0x16, 0x30, 0x5d, 0x28, 0x1b, 0x53, 0x1d, 0x1a, 0x38,
  0x1f, 0xd6, 0x4d, 0x31, 0x17, 0x0a, 0xe2, 0xe2, 0x41, 0x2c, 0xf1, 0x01,
  0x02, 0xef, 0x20, 0xf7, 0xf9, 0xec, 0x10, 0x0d, 0x07, 0x0e, 0xf0, 0x23,
  0x4c, 0xcf, 0x2f, 0x7e, 0x10, 0x1d, 0x43, 0x0c, 0x30, 0x0b, 0xef, 0x28,
  0x28, 0x05, 0xf9, 0x36, 0xff, 0x6b, 0xfc, 0xe3, 0xda, 0xf6, 0x19, 0xfe,
  0xc3, 0x05, 0xfb, 0xff, 0xec, 0xf5, 0xed, 0x05, 0xdd, 0xdf, 0x07, 0x0a,
  0xa0, 0xfe, 0xfa, 0x18, 0xe2, 0xe0, 0x81, 0xf7, 0x11, 0x1b, 0xc8, 0xd4,
  0x15, 0xd9, 0xd4, 0xff, 0xf3, 0x00, 0xd5, 0xef, 0xf8, 0x23, 0x0f, 0xc9,
  0xcf, 0x0d, 0xd7, 0xf1, 0xef, 0xcf, 0xdd, 0x16, 0xfd, 0xfd, 0xfb, 0xe3,
  0xcb, 0x21, 0x00, 0xe9, 0xf3, 0x02, 0xed, 0xeb, 0xdd, 0xfc, 0x10, 0x00,
  0xd9, 0x0a, 0xe6, 0x0a, 0x0c, 0xed, 0xff, 0x01, 0xe0, 0xf3, 0xc9, 0xe3,
  0xf9, 0x28, 0x05, 0x06, 0xda, 0x0b, 0xfc, 0x17, 0x01, 0xf3, 0xd8, 0x17,
  0x15, 0xdf, 0xf7, 0x13, 0xe2, 0xed, 0xf8, 0xd9, 0xfb, 0xec, 0x04, 0xa3,
  0x0c, 0xd7, 0xfb, 0xd6, 0xea, 0xcf, 0xfb, 0x0e, 0x01, 0x04, 0xcf, 0x04,
  0x1b, 0x25, 0x13, 0xf4, 0xdd, 0xcb, 0x03, 0xe4, 0xfe, 0xe6, 0xf2, 0xf5,
  0x10, 0x82, 0xfd, 0xff, 0x03, 0xc8, 0x1b, 0x1e, 0x12, 0x0f, 0x15, 0xde,
  0x06, 0xea, 0x03, 0xeb, 0x13, 0xa6, 0x27, 0x02, 0x1a, 0x01, 0xeb, 0x83,
  0x35, 0xb7, 0xb4, 0x2b, 0xf1, 0xf1, 0xc0, 0x31, 0xb0, 0x25, 0x03, 0xea,
  0xfc, 0xce, 0xdf, 0x11, 0xf1, 0xf7, 0xa1, 0xea, 0x03, 0xeb, 0xca, 0x10,
  0xb1, 0xf0, 0x00, 0x09, 0xe5, 0xc5, 0x1a, 0xf4, 0xb7, 0x24, 0x18, 0xe7,
  0xec, 0x0b, 0xf7, 0x17, 0xf6, 0xb1, 0xb1, 0xd4, 0x92, 0xb8, 0xd9, 0xbe,
  0xfe, 0xe6, 0xf7, 0x11, 0xfd, 0x02, 0xad, 0x24, 0x00, 0xe7, 0xef, 0xf4,
  0x32, 0x07, 0x02, 0xe8, 0x17, 0x0f, 0xff, 0x15, 0xf5, 0x35, 0xd0, 0x09,
  0xec, 0x03, 0xfe, 0x87, 0x81, 0x19, 0xe8, 0x67, 0xff, 0xd1, 0xb4, 0x32,
  0xeb, 0x1f, 0x1c, 0xbc, 0xca, 0x36, 0xf6, 0xfe, 0xea, 0x1c, 0xd1, 0xf8,
  0x0a, 0xf4, 0xf1, 0xfd, 0xe2, 0xd6, 0x11, 0x25, 0xcd, 0xe5, 0x07, 0xc5,
  0x15, 0x35, 0x15, 0x08, 0xc7, 0xfa, 0x31, 0x02, 0x29, 0xe2, 0xf9, 0xcb,
  0x2a, 0xe8, 0xca, 0xd7, 0xf4, 0x1e, 0xf6, 0x06, 0x03, 0x03, 0xf6, 0xd1,
  0xee, 0x01, 0x2e, 0xdf, 0x18, 0x0e, 0x01, 0x24, 0x0e, 0x40, 0x0f, 0x2c,
  0x31, 0x03, 0x1f, 0x0c, 0xd7, 0x16, 0xde, 0xe1, 0xdc, 0xe9, 0x47, 0xf7,
  0xbe, 0x28, 0x01, 0xed, 0x08, 0xbf, 0x24, 0x0f, 0x1e, 0xdc, 0xb2, 0x04,
  0xe0, 0xd7, 0xed, 0x17, 0xbb, 0xfc, 0xfc, 0xde, 0x03, 0xfb, 0x11, 0xe0,
  0x02, 0x85, 0xdc, 0xee, 0xbc, 0xf8, 0xc1, 0xed, 0xec, 0x19, 0x11, 0xef,
  0x81, 0x19, 0xf4, 0xac, 0xc2, 0x22, 0x0f, 0xe3, 0xe8, 0xbd, 0xfe, 0xf6,
  0x01, 0xcf, 0x07, 0xce, 0x3a, 0x94, 0x73, 0xa5, 0xf2, 0x07, 0xd2, 0x21,
  0x15, 0x0a, 0x3c, 0x15, 0xd0, 0x0c, 0x09, 0x24, 0x12, 0xb0, 0xdb, 0x25,
  0x08, 0x39, 0x2c, 0xee, 0xc7, 0xdb, 0x1f, 0xe9, 0x62, 0x00, 0xb3, 0xda,
  0xed, 0x00, 0xfb, 0x01, 0x13, 0x0a, 0x9f, 0x0f, 0xf2, 0xcd, 0x14, 0xd3,
  0x3e, 0xe6, 0xd8, 0x14, 0x33, 0xd8, 0xf1, 0xf6, 0x2c, 0x3e, 0x14, 0xf0,
  0xf7, 0x33, 0x27, 0x34, 0x1a, 0xdc, 0x1c, 0xdc, 0x0c, 0x2a, 0xf4, 0xfd,
  0xac, 0x21, 0x0c, 0xf9, 0x01, 0xa1, 0xcb, 0xe2, 0xe4, 0xa5, 0x16, 0xd3,
  0xc3, 0x03, 0xfc, 0xe6, 0x1c, 0x1c, 0xec, 0x06, 0x33, 0xab, 0x22, 0xec,
  0xf7, 0x11, 0x05, 0x13, 0x23, 0x13, 0x40, 0x15, 0xfd, 0xf7, 0x10, 0x0d,
  0x38, 0x1e, 0xfb, 0xfe, 0x1f, 0x26, 0x4b, 0xec, 0x10, 0xf7, 0x20, 0xef,
  0x7f, 0x02, 0xf5, 0x0e, 0x2a, 0xfb, 0xfa, 0x25, 0x24, 0x14, 0x07, 0x07,
  0xfa, 0xec, 0x0b, 0x03, 0x1f, 0x1d, 0xe0, 0xf5, 0x58, 0x26, 0x02, 0xe3,
  0x2c, 0xdb, 0x0b, 0x37, 0x21, 0xdb, 0x02, 0xda, 0x12, 0x5c, 0x19, 0xe7,
  0x3d, 0xfe, 0x2a, 0x20, 0x07, 0xe4, 0xe8, 0xcc, 0x0b, 0x33, 0xfa, 0x1f,
  0x1d, 0x02, 0x37, 0x15, 0x04, 0x1f, 0xfd, 0x2b, 0x13, 0xe6, 0x03, 0x54,
  0xd2, 0x1e, 0xfd, 0x0b, 0xf6, 0x4f, 0x15, 0xd3, 0xef, 0x08, 0x03, 0xf3,
  0xef, 0x09, 0x12, 0xfe, 0x0b, 0xd5, 0x1f, 0xf7, 0xf6, 0x14, 0x03, 0xff,
  0x2b, 0xf1, 0xe0, 0x28, 0x1d, 0x2c, 0xea, 0x46, 0x07, 0xf3, 0x07, 0x57,
  0xc5, 0xe7, 0xe8, 0xe0, 0x9d, 0x1b, 0xb3, 0x09, 0xdf, 0xaa, 0xa5, 0x11,
  0xd5, 0x12, 0xc4, 0xa6, 0xcc, 0xf6, 0x0a, 0xff, 0xe0, 0xee, 0x18, 0x00,
  0x52, 0x01, 0xdf, 0x24, 0x37, 0xe5, 0xbe, 0x15, 0x4c, 0x04, 0x1c, 0xd1,
  0x4f, 0x1c, 0x57, 0xcf, 0xf3, 0xdb, 0x1b, 0xd9, 0x2a, 0xfc, 0x10, 0xf0,
  0x7f, 0xfd, 0x3d, 0xa2, 0x3d, 0x3a, 0x2b, 0x28, 0x78, 0xb5, 0x17, 0x23,
  0x0f, 0xe6, 0x1e, 0x0e, 0x29, 0xc3, 0x31, 0xb9, 0x3c, 0x17, 0x25, 0xfb,
  0xe2, 0xcd, 0x55, 0x16, 0xfb, 0x32, 0x3d, 0x11, 0xe5, 0x2d, 0x4f, 0x11,
  0x5a, 0x0f, 0x34, 0x3b, 0x11, 0xd4, 0xf7, 0x42, 0x21, 0xd5, 0xe0, 0xb0,
  0x04, 0x1b, 0xdb, 0x03, 0xfe, 0x4e, 0x01, 0x2d, 0x68, 0x0c, 0x34, 0x6f,
  0xf5, 0x07, 0x47, 0x0a, 0x1a, 0x14, 0x4f, 0xf1, 0x36, 0xdb, 0x02, 0x3d,
  0x47, 0x36, 0x2c, 0xfa, 0x07, 0xb9, 0x1c, 0xf3, 0x2a, 0x42, 0x0e, 0x74,
  0xcc, 0x24, 0x26, 0x26, 0xf9, 0x23, 0x14, 0x02, 0x0b, 0x64, 0xea, 0x6c,
  0x11, 0x0d, 0x30, 0xf3, 0x1b, 0x75, 0x1d, 0x3e, 0x66, 0x0c, 0xd8, 0x30,
  0xf5, 0xfd, 0xe5, 0xdc, 0xfb, 0x04, 0x48, 0xe7, 0x03, 0x1e, 0xd7, 0x48,
  0x1d, 0xfe, 0xe4, 0x1d, 0x1d, 0x20, 0xec, 0x48, 0xf0, 0x06, 0xe6, 0x2b,
  0x0b, 0xb8, 0xf5, 0x14, 0x17, 0xfc, 0xbd, 0x2b, 0xe2, 0x1d, 0x23, 0xca,
  0x05, 0xe8, 0xc3, 0x1a, 0xef, 0xfd, 0xd7, 0x0f, 0x0d, 0x0c, 0xe9, 0x15,
  0x1c, 0xf5, 0xff, 0x39, 0x0a, 0x03, 0x0b, 0xd0, 0xcc, 0xed, 0x17, 0x19,
  0xdc, 0xe4, 0x1b, 0xea, 0xdb, 0xf3, 0xbc, 0xca, 0xd0, 0xaf, 0xd7, 0x09,
  0xe0, 0xf5, 0xd3, 0xe2, 0xda, 0xde, 0x2f, 0xf8, 0x03, 0xe3, 0xf4, 0xe5,
  0xf2, 0xab, 0x12, 0x81, 0x0f, 0x20, 0x0d, 0xe5, 0x0b, 0xd8, 0xd3, 0xfc,
  0x39, 0x02, 0x03, 0xe3, 0x0c, 0x28, 0xfe, 0x2a, 0x22, 0x26, 0xf0, 0x2c,
  0x14, 0x37, 0x30, 0x3f, 0xc9, 0x44, 0x10, 0x1d, 0x2b, 0x18, 0x0c, 0xec,
  0x1a, 0xfa, 0x2d, 0x0a, 0xff, 0xf4, 0x2c, 0xfe, 0x04, 0xe7, 0xff, 0x13,
  0x5e, 0x2b, 0x08, 0x0b, 0xf6, 0x01, 0x1a, 0x1a, 0xfe, 0x20, 0xf1, 0x22,
  0xe8, 0xae, 0xfb, 0xfa, 0x0a, 0x06, 0x93, 0xce, 0x1a, 0xd2, 0xf6, 0xaf,
  0xdf, 0xc3, 0x10, 0xc5, 0xea, 0xc2, 0x0a, 0x0c, 0xf7, 0xf9, 0x05, 0x94,
  0x07, 0xe7, 0x0e, 0xc1, 0x0b, 0xb2, 0xd8, 0xed, 0xef, 0x15, 0x18, 0x16,
  0x98, 0x24, 0xb5, 0xf7, 0xee, 0x03, 0xf9, 0xfa, 0xec, 0x05, 0xda, 0xe9,
  0x96, 0xea, 0xfb, 0x02, 0xe6, 0xd6, 0x96, 0xdb, 0x13, 0x03, 0xd7, 0xd9,
  0x17, 0x0d, 0xe8, 0x19, 0xf6, 0xe0, 0x03, 0x11, 0x01, 0x20, 0xf1, 0xec,
  0xea, 0x1e, 0xca, 0xe6, 0x05, 0x11, 0xe6, 0x22, 0x06, 0xea, 0xfd, 0xf5,
  0x86, 0xe6, 0xda, 0xda, 0xe5, 0x27, 0xf0, 0xb8, 0xc0, 0x0b, 0x00, 0xf1,
  0xfa, 0xef, 0x07, 0xfb, 0xea, 0xb2, 0x09, 0x19, 0xe7, 0xfc, 0x0f, 0xa1,
  0xe0, 0xe3, 0xf2, 0xea, 0xf2, 0xc6, 0xe2, 0x17, 0x0a, 0xf9, 0xf9, 0xc7,
  0x06, 0xf5, 0xeb, 0xcc, 0xec, 0xee, 0x11, 0x81, 0x12, 0xe7, 0xf1, 0xee,
  0x08, 0x01, 0xf5, 0xb4, 0xe7, 0x2a, 0xdc, 0x12, 0x15, 0xe5, 0xf8, 0xf7,
  0x03, 0x0e, 0x02, 0xe3, 0xe4, 0xad, 0x1e, 0x23, 0x05, 0xe3, 0xe4, 0xf0,
  0x2e, 0xb5, 0x00, 0xe9, 0xfe, 0xb7, 0x31, 0x23, 0x1c, 0xf9, 0x17, 0xb4,
  0x2a, 0xef, 0x37, 0x0f, 0xf0, 0xda, 0xf3, 0xe7, 0x17, 0x0c, 0xf9, 0xc4,
  0x16, 0xa9, 0xde, 0x0d, 0x19, 0xfb, 0xe2, 0x08, 0x00, 0x15, 0x0d, 0xd0,
  0xda, 0xd7, 0xf8, 0xb5, 0xc4, 0xed, 0xa6, 0xfb, 0xf4, 0xf8, 0xfc, 0xfc,
  0xc5, 0x08, 0x15, 0x30, 0xdb, 0xe2, 0xd5, 0xb5, 0xd8, 0x81, 0xd4, 0x06,
  0xbf, 0xe6, 0xf7, 0x10, 0xed, 0x31, 0xa0, 0x15, 0xf2, 0xb3, 0xb4, 0x05,
  0xc3, 0x31, 0xf2, 0xd1, 0xba, 0x06, 0xde, 0x3c, 0x1a, 0xe7, 0xf6, 0x05,
  0x05, 0xb3, 0x1f, 0x14, 0xf8, 0x0b, 0x18, 0x14, 0x12, 0xf9, 0x07, 0xeb,
  0x61, 0xe2, 0x33, 0x46, 0x35, 0xbb, 0x43, 0x00, 0x2b, 0x35, 0xf3, 0xd7,
  0x13, 0x24, 0x21, 0x1a, 0x07, 0xf8, 0x15, 0xa8, 0xfb, 0x14, 0x02, 0x02,
  0xb7, 0x1b, 0x15, 0x1d, 0x06, 0xb4, 0xd1, 0xd6, 0x0c, 0xba, 0xd4, 0xbf,
  0xec, 0xe8, 0xf7, 0xd5, 0xd6, 0x98, 0xef, 0xf9, 0x14, 0xed, 0xe8, 0xb9,
  0xfe, 0x01, 0xdf, 0xb8, 0xdf, 0xd9, 0xf8, 0xa0, 0xfd, 0xd5, 0xf4, 0xa6,
  0xdf, 0x2e, 0xdf, 0xc8, 0x00, 0xfd, 0xc4, 0x0b, 0x11, 0xfa, 0x0c, 0xd1,
  0xf7, 0x26, 0x22, 0xe4, 0xc8, 0x83, 0x13, 0xe4, 0xdc, 0x0e, 0x15, 0x0b,
  0xba, 0x07, 0xe5, 0x21, 0xe4, 0xf7, 0x07, 0xeb, 0xca, 0xf7, 0x14, 0xdd,
  0xdd, 0x23, 0x19, 0x14, 0xf8, 0xf8, 0xcb, 0x1b, 0x30, 0x33, 0xfd, 0xfd,
  0xfa, 0x0a, 0xde, 0x00, 0x14, 0x08, 0xea, 0xe5, 0xfe, 0x0f, 0x02, 0xf2,
  0xf4, 0x06, 0xbe, 0xdb, 0x02, 0xe5, 0xff, 0x27, 0xe3, 0x1c, 0x08, 0xd6,
  0x25, 0x21, 0x08, 0xdc, 0xed, 0xf1, 0xdb, 0xe7, 0xe9, 0xdd, 0xda, 0xf8,
  0xf0, 0x07, 0xfa, 0x1c, 0xf8, 0x09, 0x08, 0x1d, 0xd6, 0xe9, 0xff, 0x09,
  0xc9, 0x2f, 0x23, 0x08, 0x0e, 0x1a, 0xde, 0x14, 0x06, 0x02, 0xcf, 0x30,
  0x20, 0xac, 0xe0, 0x0a, 0x06, 0xdc, 0x19, 0x28, 0xdd, 0x00, 0xf3, 0xc3,
  0x21, 0xed, 0xf9, 0x01, 0xcc, 0xeb, 0x14, 0xf3, 0x08, 0x26, 0xcf, 0xfd,
  0xfa, 0x04, 0xfd, 0xe2, 0xc5, 0xdb, 0x0a, 0xd1, 0xc0, 0xc7, 0xee, 0x07,
  0xe4, 0x81, 0xed, 0xf3, 0x03, 0xdc, 0xd8, 0x31, 0x00, 0xf9, 0x1f, 0x16,
  0x1a, 0x09, 0x07, 0x0c, 0x0c, 0xc5, 0x23, 0x35, 0x20, 0xe2, 0xdd, 0xb3,
  0xb9, 0xf4, 0x47, 0x9a, 0xe9, 0xf7, 0x00, 0x00, 0x27, 0xb8, 0xa6, 0xff,
  0xf8, 0xf9, 0x19, 0xc9, 0xcf, 0x28, 0x22, 0x32, 0x1b, 0xf3, 0x25, 0x1e,
  0x47, 0x3d, 0x0e, 0xbb, 0x2d, 0x48, 0xd6, 0x37, 0x34, 0xf8, 0xfb, 0xe7,
  0x1f, 0xeb, 0xa4, 0xbe, 0x14, 0x10, 0xf5, 0x02, 0xfb, 0x29, 0xfe, 0xf7,
  0x1e, 0x2e, 0xf1, 0x2f, 0x33, 0x10, 0x69, 0x19, 0x3a, 0x1f, 0x23, 0x01,
  0x10, 0x46, 0x10, 0x0a, 0xf8, 0xc9, 0x21, 0xd6, 0x2f, 0xfa, 0xea, 0x42,
  0x1d, 0x0c, 0x1d, 0xed, 0xe3, 0x3d, 0x2c, 0x11, 0x46, 0x22, 0x0c, 0x17,
  0x67, 0x21, 0x34, 0x09, 0xf3, 0xfa, 0xfa, 0x3d, 0xfd, 0x0b, 0xfa, 0xd6,
  0x0f, 0xfb, 0x13, 0xee, 0xe6, 0x04, 0xfb, 0xfc, 0x27, 0x2e, 0xf3, 0xf5,
  0x03, 0x07, 0x42, 0x26, 0xf4, 0x21, 0xf4, 0x2f, 0x18, 0x08, 0xdb, 0x4c,
  0xd6, 0xda, 0x25, 0x14, 0xf7, 0x03, 0x9c, 0xe3, 0xdc, 0x94, 0x81, 0x0a,
  0x16, 0x0f, 0xe9, 0xc4, 0xa4, 0x16, 0xda, 0x37, 0x09, 0xce, 0xcc, 0x48,
  0xce, 0x28, 0x02, 0xf7, 0x12, 0x52, 0xd2, 0xf8, 0xdc, 0xf4, 0xf6, 0x07,
  0x2f, 0xf6, 0xf1, 0xe6, 0xd8, 0x0f, 0x32, 0x00, 0xf3, 0xed, 0xe2, 0xf9,
  0x7f, 0x03, 0xf4, 0xdf, 0x06, 0x11, 0x72, 0x04, 0x2f, 0x11, 0xfd, 0xff,
  0xf7, 0x1d, 0xfe, 0x1a, 0x0a, 0xea, 0x23, 0xe7, 0x0f, 0x18, 0x14, 0x16,
  0xdf, 0x0c, 0x5a, 0x17, 0xe8, 0xec, 0xf6, 0xe9, 0x05, 0x17, 0x16, 0xfd,
  0x34, 0xf5, 0x24, 0x47, 0x1f, 0xf0, 0x2e, 0xf4, 0x13, 0x0b, 0x05, 0xd0,
  0xf2, 0xe2, 0x07, 0x23, 0x14, 0xe2, 0x21, 0xec, 0x47, 0x12, 0x0d, 0x18,
  0xf2, 0xfe, 0x19, 0x13, 0xfe, 0xfb, 0xe6, 0x28, 0x06, 0x15, 0xe5, 0x25,
  0xf2, 0xd3, 0xf9, 0x16, 0xec, 0xd1, 0x04, 0x2b, 0xfd, 0x03, 0xee, 0xe9,
  0x07, 0xde, 0x02, 0x1f, 0x11, 0xe7, 0xf6, 0x07, 0xd2, 0x02, 0x26, 0x46,
  0x05, 0x54, 0xe1, 0xda, 0x12, 0x5c, 0xd9, 0xf5, 0xe9, 0xf3, 0xaf, 0xdf,
  0xd9, 0xfd, 0xe0, 0xc1, 0xa4, 0x1c, 0xe3, 0x11, 0xdb, 0xdd, 0xd1, 0x0f,
  0x13, 0x10, 0x03, 0xd0, 0xec, 0x0e, 0x4a, 0x43, 0xff, 0x11, 0x09, 0x18,
  0x12, 0xb2, 0xf9, 0xea, 0x17, 0xf7, 0xab, 0x06, 0x0b, 0xf3, 0xed, 0x06,
  0xf0, 0x2b, 0x0d, 0xd0, 0xe1, 0xe4, 0xa6, 0x0c, 0xe4, 0xfd, 0xef, 0x1b,
  0xc6, 0x09, 0xef, 0xf2, 0xd7, 0xfc, 0x24, 0x81, 0xe2, 0x2f, 0xda, 0x11,
  0xe4, 0xeb, 0x01, 0xf2, 0x03, 0xb7, 0xe9, 0xe5, 0xeb, 0xe2, 0xdf, 0x9d,
  0xf1, 0xd3, 0x10, 0x15, 0x04, 0xb2, 0xe5, 0x11, 0x08, 0xf5, 0xf1, 0xd2,
  0x18, 0xa9, 0xd9, 0xe6, 0x1a, 0x0b, 0x09, 0xbf, 0x22, 0xff, 0x0a, 0xd3,
  0xd3, 0x06, 0xe9, 0x9f, 0xb5, 0xaa, 0xfd, 0xf9, 0x0c, 0xc8, 0xe4, 0xc2,
  0x2d, 0x0f, 0x2a, 0x12, 0xd7, 0xc9, 0x0a, 0xde, 0x11, 0xf8, 0xe8, 0x01,
  0x29, 0xe4, 0x0d, 0xf7, 0xdf, 0x1e, 0xe8, 0x09, 0x1f, 0xf0, 0x07, 0xe2,
  0x13, 0x2a, 0x41, 0xd7, 0xee, 0xd3, 0x13, 0xe4, 0x49, 0x13, 0xee, 0xc3,
  0x1d, 0xff, 0x0e, 0x09, 0x05, 0x1b, 0xee, 0x29, 0xf6, 0x09, 0xd1, 0x0b,
  0x0d, 0x09, 0xfd, 0x04, 0x05, 0xbc, 0x11, 0xf2, 0x1d, 0xfd, 0x06, 0x14,
  0xed, 0x0a, 0x19, 0xee, 0xc1, 0x0d, 0xb2, 0x13, 0xee, 0xb6, 0xeb, 0x29,
  0x38, 0x2d, 0xdc, 0xa2, 0xea, 0x15, 0x15, 0x18, 0xee, 0xe0, 0xf2, 0x21,
  0x55, 0x33, 0xdd, 0xc8, 0xf4, 0x29, 0x40, 0x31, 0xed, 0xf7, 0x28, 0x29,
  0xed, 0x11, 0xc3, 0xea, 0xfb, 0x06, 0x1b, 0x0b, 0xb9, 0xe2, 0x04, 0xef,
  0xfa, 0x0e, 0xfc, 0xf1, 0x19, 0xfd, 0x32, 0x08, 0xd6, 0x1a, 0x16, 0xf6,
  0x5b, 0xe0, 0x31, 0x35, 0x29, 0xcd, 0x03, 0x20, 0xf8, 0x18, 0x03, 0xfe,
  0x2c, 0xe3, 0x07, 0x1b, 0x12, 0xed, 0x03, 0xfc, 0x17, 0xf4, 0xfc, 0x40,
  0x00, 0x00, 0x17, 0x17, 0xfd, 0x0d, 0x16, 0xf9, 0x34, 0xfb, 0xf3, 0xc8,
  0x24, 0xeb, 0x2f, 0x17, 0x03, 0xe0, 0x24, 0xfa, 0x1f, 0x0b, 0xdf, 0xe1,
  0x0e, 0xe9, 0x3f, 0x32, 0x0f, 0xd1, 0x06, 0xf4, 0x3b, 0x56, 0x0d, 0x57,
  0xd3, 0x0e, 0xfe, 0x0c, 0x08, 0x60, 0xed, 0x00, 0x25, 0x1d, 0xe8, 0xd8,
  0xae, 0xf7, 0x28, 0xe9, 0xb7, 0x19, 0xdd, 0xe7, 0xf8, 0xea, 0xaf, 0x02,
  0xd5, 0x20, 0xda, 0xc5, 0xf7, 0x38, 0xfd, 0x48, 0xc7, 0xfb, 0x3f, 0x7f,
  0xd6, 0x19, 0x18, 0x19, 0x0a, 0x05, 0x26, 0x07, 0x2f, 0x17, 0x15, 0xf7,
  0x36, 0x37, 0x28, 0x27, 0xc3, 0x04, 0x54, 0x02, 0xea, 0x15, 0xcd, 0x09,
  0x70, 0xce, 0xe7, 0x4f, 0x1c, 0xdd, 0xef, 0x38, 0x15, 0xad, 0xaf, 0xf5,
  0x51, 0x20, 0x27, 0x0c, 0xcc, 0x13, 0x49, 0x29, 0x33, 0xd3, 0xf8, 0x35,
  0x67, 0x11, 0x31, 0xff, 0xe1, 0x02, 0x7f, 0xc0, 0x44, 0x49, 0x38, 0xb7,
  0x49, 0x27, 0x5b, 0x06, 0x8d, 0xd4, 0x08, 0xda, 0x15, 0x13, 0xf9, 0x1b,
  0x1a, 0x34, 0x08, 0xda, 0xf5, 0x3f, 0x1a, 0x02, 0x48, 0x3f, 0x1f, 0x0b,
  0xd1, 0xd0, 0x52, 0x50, 0x26, 0xc2, 0xde, 0xf0, 0xdb, 0x0e, 0x1a, 0x09,
  0xdf, 0x23, 0xd0, 0x0d, 0x0b, 0x07, 0xe8, 0xfe, 0xb7, 0x0c, 0xfb, 0xe8,
  0xa1, 0xf6, 0xe4, 0x54, 0x2c, 0x07, 0xd7, 0x2f, 0x19, 0xd4, 0x22, 0x46,
  0x0f, 0xe9, 0xcb, 0x28, 0x0b, 0x03, 0xe2, 0x1b, 0xe5, 0x25, 0xf4, 0xe6,
  0xcc, 0x03, 0xb0, 0xc7, 0xe4, 0xfa, 0xe5, 0x01, 0x9d, 0xe5, 0xfa, 0x15,
  0xd6, 0x3a, 0x01, 0xb3, 0x1f, 0x22, 0x05, 0xe8, 0xff, 0xe7, 0x07, 0x01,
  0xa3, 0x1a, 0xc7, 0xdb, 0xd6, 0x10, 0xd4, 0x27, 0xc2, 0xda, 0xe7, 0xe3,
  0xcf, 0x02, 0xee, 0x32, 0x03, 0xfe, 0x81, 0xe8, 0xe2, 0xdb, 0xba, 0xd6,
  0x07, 0x06, 0xfa, 0x28, 0x17, 0xf3, 0x0a, 0x31, 0x07, 0x18, 0x0e, 0xed,
  0x1f, 0xf6, 0xcc, 0xfc, 0x14, 0xf5, 0xf6, 0xdf, 0x06, 0x0a, 0xee, 0x1f,
  0xef, 0xe2, 0xe9, 0xf1, 0xdf, 0xed, 0xf2, 0xd4, 0xc4, 0xf5, 0x20, 0xd8,
  0xb7, 0xd5, 0xff, 0x2d, 0x0a, 0x9d, 0xfa, 0x14, 0x9a, 0x98, 0xd6, 0x9b,
  0x03, 0xc7, 0xf3, 0xe9, 0x01, 0xce, 0xe7, 0xf8, 0x04, 0xe7, 0xd8, 0xee,
  0xf4, 0x01, 0xe8, 0xa1, 0xd2, 0x24, 0x2a, 0xab, 0x15, 0xc8, 0xf6, 0xfd,
  0xea, 0x22, 0x04, 0xd4, 0x04, 0x01, 0xdf, 0x1e, 0xf9, 0xe5, 0xd1, 0xe3,
  0xe9, 0xe0, 0x04, 0xf8, 0xd9, 0xee, 0x2b, 0x02, 0x01, 0xf2, 0xe9, 0x06,
  0x50, 0x2a, 0x19, 0xd5, 0xdd, 0x04, 0x35, 0x13, 0x3f, 0x13, 0xff, 0x0a,
  0x22, 0x1f, 0x0f, 0xf2, 0xf5, 0x26, 0x05, 0xf0, 0x11, 0x0b, 0xd1, 0x1d,
  0xf6, 0xf0, 0xf5, 0xe0, 0x1f, 0x06, 0xe4, 0x03, 0xee, 0x00, 0xfd, 0x06,
  0xcf, 0xe5, 0xcf, 0x0e, 0x03, 0xfa, 0xa6, 0x0c, 0xf4, 0xef, 0xd0, 0xf6,
  0xab, 0xfc, 0x1a, 0x0b, 0xc2, 0xd3, 0xec, 0x0b, 0xf7, 0x01, 0x08, 0x0c,
  0xdf, 0x08, 0xef, 0x0f, 0xf0, 0x0e, 0x0f, 0x00, 0xca, 0x02, 0x02, 0xd5,
  0xeb, 0xfb, 0x0a, 0xf3, 0xe5, 0xe1, 0xe6, 0x10, 0xf5, 0xb3, 0xd9, 0xf7,
  0xf7, 0xe2, 0xcf, 0xe0, 0x0b, 0xe6, 0xdd, 0xff, 0xfb, 0xe8, 0x04, 0xc9,
  0xeb, 0x0c, 0xff, 0xda, 0xd4, 0xe5, 0xf7, 0xff, 0xe8, 0xfa, 0xd4, 0x06,
  0xe9, 0x0c, 0xeb, 0xef, 0x05, 0x2e, 0x07, 0x09, 0x01, 0xe8, 0x19, 0xe2,
  0x2b, 0xe8, 0x0e, 0x06, 0xf8, 0x81, 0xf7, 0x00, 0x06, 0xfc, 0xef, 0xdc,
  0x1b, 0x19, 0xfa, 0xaf, 0xe9, 0xdd, 0x35, 0xf6, 0x03, 0xf1, 0xd4, 0xd5,
  0xf0, 0x01, 0x03, 0xda, 0xe3, 0x12, 0x10, 0xa9, 0x18, 0xca, 0xff, 0xee,
  0x1e, 0x44, 0x29, 0x02, 0x1e, 0x28, 0xfd, 0x00, 0x30, 0x07, 0xf5, 0xcf,
  0x17, 0xec, 0x01, 0x10, 0xd9, 0x99, 0xfd, 0x0d, 0x18, 0x08, 0xf8, 0xdc,
  0x1c, 0x15, 0x01, 0x04, 0x00, 0x18, 0xf8, 0x2e, 0x3b, 0xee, 0xee, 0xe9,
  0x3b, 0x4d, 0x31, 0xff, 0x39, 0x42, 0xe6, 0x5a, 0x31, 0xb9, 0x24, 0x7c,
  0xd4, 0x00, 0x59, 0x12, 0x07, 0x06, 0x3f, 0xf4, 0xce, 0xdf, 0xec, 0xf3,
  0x12, 0x21, 0x22, 0x08, 0x1f, 0xfb, 0x0b, 0x3c, 0xdf, 0x01, 0x3f, 0x21,
  0x20, 0x4c, 0xfb, 0x0c, 0x02, 0x2c, 0xa1, 0xfa, 0x2e, 0xfd, 0xfe, 0x05,
  0xfb, 0xe7, 0xc2, 0x81, 0xd5, 0xf0, 0x0b, 0xf5, 0x04, 0xd7, 0xd3, 0x0c,
  0x27, 0xf8, 0x05, 0xe9, 0xe5, 0x09, 0x7c, 0xef, 0x33, 0xe7, 0x07, 0xf3,
  0xf7, 0x02, 0xdd, 0x29, 0x23, 0x16, 0xef, 0x0b, 0xe6, 0x10, 0xe3, 0x22,
  0x0b, 0x0b, 0x1b, 0xf1, 0xca, 0xe5, 0x0f, 0x09, 0x44, 0xd7, 0xd7, 0xf1,
  0x02, 0xfe, 0x18, 0x46, 0xe3, 0x00, 0x04, 0x28, 0xf9, 0x03, 0x23, 0xb8,
  0x34, 0xea, 0x20, 0x0a, 0x20, 0xf7, 0x11, 0x06, 0x20, 0x4e, 0x0d, 0x08,
  0xfe, 0x15, 0x2c, 0xfb, 0xef, 0x00, 0xfe, 0x02, 0x0d, 0x3e, 0xf4, 0x17,
  0x33, 0xb5, 0xb9, 0x22, 0x1c, 0xf1, 0xb7, 0x18, 0x81, 0x21, 0xfa, 0xc1,
  0x02, 0xcc, 0x93, 0xdc, 0x08, 0x0e, 0xb1, 0xd4, 0xc8, 0xf3, 0x03, 0xf0,
  0xd3, 0x15, 0xcd, 0xfe, 0xf5, 0xfb, 0x13, 0xee, 0xab, 0x1b, 0x22, 0x14,
  0xc2, 0xf2, 0x00, 0x09, 0x23, 0xd9, 0xfb, 0x8e, 0x82, 0xc9, 0xf8, 0xe1,
  0xed, 0xe3, 0x09, 0x24, 0xf4, 0xe4, 0xff, 0xec, 0xd2, 0xd0, 0x0f, 0xc8,
  0x31, 0xda, 0xf3, 0xce, 0xe2, 0x07, 0x11, 0xb8, 0x00, 0xe5, 0xda, 0x24,
  0xff, 0x0a, 0xe0, 0x89, 0xe4, 0x07, 0xdc, 0x42, 0x1b, 0xd1, 0xed, 0xfb,
  0x3c, 0x26, 0x08, 0x12, 0xb3, 0xff, 0xf9, 0x2b, 0x4f, 0xf6, 0xf7, 0xeb,
  0x43, 0x1b, 0x15, 0x03, 0x04, 0xca, 0x3a, 0x10, 0x47, 0x34, 0x2c, 0xa5,
  0x50, 0xfc, 0x5f, 0x0f, 0x1d, 0xce, 0x34, 0x2e, 0x35, 0x28, 0x09, 0xaa,
  0x07, 0x32, 0x28, 0xf6, 0xee, 0x0b, 0xf0, 0x19, 0x09, 0x15, 0xfd, 0xc1,
  0xd4, 0xa9, 0x3f, 0xf2, 0x1d, 0xba, 0x1d, 0xe2, 0x1e, 0x13, 0x1b, 0x97,
  0x25, 0xa5, 0x27, 0xf3, 0x20, 0x9c, 0xa8, 0x05, 0xec, 0xd1, 0xf6, 0xca,
  0x3b, 0x19, 0x09, 0xb3, 0x00, 0xd0, 0xe2, 0xf7, 0x1e, 0x0d, 0x0b, 0xcc,
  0x3b, 0x37, 0x27, 0xb8, 0x0a, 0x03, 0x4f, 0x13, 0x7f, 0xea, 0x03, 0x7d,
  0xf2, 0x1b, 0x06, 0x05, 0x16, 0xa6, 0x1b, 0xf6, 0x27, 0xd5, 0xc0, 0x14,
  0xcc, 0xe4, 0x61, 0x1d, 0x0b, 0x26, 0xf9, 0x29, 0x29, 0xf7, 0xef, 0x0f,
  0x06, 0x41, 0x67, 0x31, 0xe1, 0x1e, 0xf7, 0x27, 0x00, 0x08, 0x0f, 0xa7,
  0x19, 0xf0, 0xc6, 0xf9, 0xf7, 0x23, 0x38, 0x10, 0x23, 0x02, 0xfa, 0x15,
  0x36, 0xd6, 0x04, 0xd5, 0x0b, 0xe0, 0x53, 0xfc, 0x4f, 0x13, 0xf9, 0x0f,
  0xd4, 0x40, 0x21, 0x0e, 0x0a, 0xe1, 0x15, 0x04, 0xd0, 0xce, 0xc7, 0x2a,
  0xde, 0xe1, 0x1c, 0x37, 0x01, 0xee, 0x1a, 0xf6, 0x39, 0xef, 0x06, 0xff,
  0x0e, 0x32, 0x1c, 0x06, 0x11, 0x23, 0xd6, 0x32, 0xfa, 0xfe, 0x17, 0xa4,
  0xd5, 0x03, 0xe8, 0xbe, 0xba, 0x16, 0x41, 0x03, 0x15, 0x0f, 0xf5, 0x38,
  0xe5, 0xfc, 0xff, 0x25, 0xd1, 0xdd, 0x08, 0x28, 0x20, 0x27, 0x39, 0x1b,
  0x0c, 0x1e, 0x40, 0xf5, 0xfa, 0x9d, 0x36, 0xb2, 0x27, 0x08, 0x12, 0x3a,
  0x10, 0xee, 0x36, 0x16, 0xf5, 0x12, 0x0c, 0x0b, 0x69, 0x13, 0x16, 0x2f,
  0xd8, 0x12, 0x3d, 0xe1, 0x01, 0x4a, 0xf8, 0x0d, 0x5c, 0x07, 0xec, 0xcc,
  0xfd, 0xc2, 0x18, 0xda, 0xef, 0x0c, 0xdb, 0xef, 0x22, 0x29, 0x1c, 0xfc,
  0xe4, 0x2b, 0xed, 0x04, 0x07, 0xfc, 0xd1, 0x55, 0x24, 0xec, 0xd1, 0x45,
  0xba, 0x0c, 0x39, 0xcf, 0xdb, 0x04, 0x9d, 0x0c, 0xce, 0x86, 0xf1, 0x1d,
  0xf7, 0x12, 0xdf, 0x2f, 0xeb, 0x15, 0x21, 0x2d, 0xd1, 0xcd, 0x02, 0x37,
  0x74, 0x4f, 0xcd, 0xbb, 0x00, 0x3c, 0xcb, 0x4a, 0x12, 0x81, 0xec, 0x04,
  0xdd, 0x1a, 0xee, 0xfa, 0x05, 0x38, 0x33, 0x2e, 0xe2, 0x3f, 0xf7, 0x2b,
  0x5b, 0x49, 0xfb, 0xf7, 0x05, 0x3a, 0x77, 0x13, 0xff, 0x29, 0xe5, 0x14,
  0xef, 0x0c, 0x0c, 0xda, 0xe5, 0x03, 0x26, 0xdd, 0xbb, 0xee, 0x0c, 0xf5,
  0x09, 0x2a, 0x15, 0x29, 0x1e, 0x15, 0x33, 0x20, 0x07, 0x25, 0x16, 0xfe,
  0x54, 0xfa, 0x14, 0x39, 0x17, 0xdd, 0x02, 0x1d, 0x21, 0x01, 0x1b, 0xf0,
  0x36, 0xe8, 0x0b, 0x14, 0xf5, 0x26, 0x23, 0xf2, 0x1f, 0x1d, 0x15, 0xfb,
  0x69, 0x0f, 0x38, 0x26, 0x03, 0xfb, 0x6a, 0x20, 0x26, 0x13, 0x28, 0xdd,
  0x17, 0x0d, 0x27, 0x17, 0x06, 0xdd, 0x27, 0xf6, 0x33, 0x2b, 0x01, 0x2e,
  0xe3, 0x1b, 0x72, 0x2f, 0x0a, 0xff, 0xf7, 0xf7, 0x05, 0x1e, 0x1f, 0x06,
  0x00, 0x1c, 0x2c, 0x5e, 0x2a, 0xf8, 0xf7, 0xf2, 0x04, 0x1f, 0x08, 0xda,
  0xf8, 0x09, 0x0b, 0xd6, 0xcc, 0x04, 0x2c, 0x00, 0x24, 0x2c, 0xfb, 0x0a,
  0xdf, 0x30, 0x16, 0x0a, 0x10, 0x51, 0xee, 0x6b, 0xf4, 0xdd, 0xf3, 0x79,
  0xaa, 0x00, 0x23, 0xe8, 0xdf, 0xf2, 0x98, 0x22, 0xe9, 0xa7, 0xc7, 0xfb,
  0xec, 0x08, 0xe4, 0xd7, 0xfa, 0xe8, 0x27, 0x1c, 0xe4, 0xe8, 0x09, 0x12,
  0x2d, 0x7f, 0xed, 0xc6, 0x24, 0x33, 0xd0, 0x03, 0xca, 0xc7, 0xf2, 0x11,
  0xad, 0x23, 0xdc, 0xa0, 0xb8, 0xe3, 0xed, 0x12, 0xe6, 0xa3, 0xc6, 0x25,
  0x55, 0xef, 0x15, 0xff, 0x1b, 0xd8, 0x56, 0xfb, 0x12, 0x2c, 0x47, 0xe6,
  0x03, 0xfb, 0xf0, 0x06, 0xd4, 0xfa, 0x18, 0xe9, 0x31, 0xf0, 0x04, 0xec,
  0x2a, 0xd7, 0x24, 0x36, 0x10, 0xed, 0x38, 0xdd, 0x0b, 0x2c, 0x15, 0xb9,
  0x7f, 0xe1, 0x10, 0x3b, 0x0d, 0xd9, 0x08, 0x14, 0xb3, 0xc7, 0xd1, 0x07,
  0xf3, 0xe7, 0xde, 0xed, 0xf6, 0x39, 0x03, 0xf2, 0x27, 0xcd, 0xee, 0x08,
  0x5b, 0xef, 0x13, 0xfd, 0xe5, 0xda, 0x4c, 0x12, 0x0f, 0x17, 0xf4, 0xcd,
  0xfe, 0x1e, 0xf4, 0xef, 0x01, 0x07, 0x0a, 0xf1, 0x82, 0xe1, 0xdd, 0x11,
  0x0b, 0x01, 0x0c, 0x20, 0x05, 0x20, 0xda, 0x08, 0x2b, 0xfc, 0xb6, 0x11,
  0xd1, 0x0c, 0x1c, 0x1f, 0xbf, 0x17, 0x06, 0x07, 0xbb, 0x12, 0x01, 0x06,
  0xd4, 0x1b, 0x0b, 0x1b, 0x02, 0xf6, 0x07, 0x14, 0xc5, 0x2f, 0x07, 0xf7,
  0xf6, 0x12, 0xda, 0x2a, 0x11, 0x09, 0xf1, 0x22, 0xee, 0xee, 0x0f, 0x27,
  0x08, 0xcd, 0xea, 0xfe, 0x11, 0xf3, 0xb8, 0x00, 0x02, 0xfa, 0x03, 0x1e,
  0xd3, 0x0c, 0xcd, 0xbb, 0xf3, 0x1b, 0xd5, 0x22, 0xb2, 0xd3, 0x11, 0x15,
  0x06, 0x29, 0xfe, 0xbb, 0xfc, 0xfc, 0xf3, 0xd7, 0xec, 0xf1, 0xf2, 0x05,
  0xd6, 0x07, 0xb6, 0xeb, 0xec, 0x19, 0xea, 0x1d, 0xd3, 0xec, 0x17, 0x14,
  0xc3, 0x02, 0x02, 0xf7, 0x0c, 0xe4, 0x81, 0xf6, 0x01, 0xea, 0xd1, 0xef,
  0x0d, 0xed, 0xe7, 0x13, 0x0b, 0xf7, 0xfd, 0x07, 0xed, 0x0c, 0x14, 0xeb,
  0x03, 0xef, 0xdc, 0x05, 0x0c, 0xdf, 0x08, 0xee, 0xef, 0xf9, 0x09, 0xfe,
  0xc9, 0x02, 0xe2, 0xdd, 0xf3, 0x14, 0xe4, 0xe7, 0xda, 0x0c, 0x09, 0xec,
  0xe9, 0xec, 0xf5, 0x1d, 0xff, 0xb3, 0xe6, 0xf7, 0xcb, 0xcc, 0xfd, 0xbf,
  0xdc, 0xf1, 0xeb, 0x02, 0xec, 0xe9, 0xe3, 0xf9, 0xe0, 0xe2, 0xfb, 0xe6,
  0xfe, 0xff, 0xf6, 0xc2, 0xe7, 0xc5, 0xf4, 0x99, 0xf6, 0xe8, 0xf0, 0x01,
  0xe1, 0x1f, 0x02, 0xdb, 0xef, 0x2a, 0xda, 0x15, 0xf8, 0xef, 0xe2, 0xf3,
  0xfa, 0x00, 0x15, 0xea, 0xe4, 0xd2, 0x0e, 0xfb, 0xfe, 0xe2, 0xf8, 0x22,
  0x38, 0xdf, 0xfe, 0xfa, 0xe8, 0xe9, 0x27, 0x23, 0x1e, 0x12, 0x09, 0x0c,
  0x1f, 0x0f, 0x1d, 0x17, 0x07, 0x0f, 0xfd, 0xf2, 0x1e, 0x22, 0xe5, 0xfa,
  0xb5, 0x28, 0xf3, 0xc2, 0x06, 0x0f, 0xf6, 0xdb, 0x8a, 0xc9, 0xd2, 0x13,
  0x21, 0x44, 0xd8, 0xcf, 0xfd, 0x1d, 0xef, 0xeb, 0xe7, 0x0a, 0xee, 0xfe,
  0xd2, 0xd7, 0x16, 0x08, 0xe4, 0xc0, 0xe8, 0x10, 0xe5, 0x05, 0xe5, 0x1a,
  0x01, 0x30, 0xeb, 0x24, 0x19, 0xf6, 0x43, 0x25, 0xf1, 0x31, 0x1d, 0x24,
  0x1b, 0xfe, 0x28, 0x01, 0x0a, 0x1f, 0xc2, 0xd7, 0x20, 0x2c, 0x1a, 0x09,
  0x2b, 0x02, 0xe0, 0x30, 0x19, 0xf7, 0x8e, 0xf0, 0xf4, 0x1c, 0x09, 0x8f,
  0xee, 0xfc, 0x96, 0xd0, 0xf8, 0x81, 0xfb, 0xaf, 0xf5, 0x18, 0x14, 0x99,
  0xb9, 0xdf, 0xd6, 0x33, 0x03, 0xcf, 0xe0, 0xdb, 0xc3, 0xa6, 0xde, 0xf3,
  0xca, 0x09, 0xe6, 0xcf, 0x08, 0xf3, 0xcb, 0x14, 0xe1, 0xb8, 0x17, 0x54,
  0x93, 0x30, 0xbe, 0xa0, 0xef, 0xfa, 0xf6, 0x3a, 0xcc, 0xc2, 0x1e, 0xa5,
  0x0e, 0x08, 0x20, 0x05, 0xff, 0xc6, 0x3f, 0xd6, 0xf2, 0xcf, 0xe5, 0xb3,
  0x31, 0x13, 0x1b, 0x17, 0x19, 0x11, 0x28, 0x07, 0x09, 0x1c, 0x22, 0xff,
  0x0e, 0xd8, 0x1b, 0x03, 0xf2, 0xe5, 0x0c, 0x21, 0x2f, 0x1c, 0x1e, 0x0b,
  0x23, 0x16, 0x14, 0x11, 0x0b, 0x10, 0x51, 0x12, 0xfb, 0xfe, 0x0a, 0x12,
  0x66, 0xfd, 0x41, 0xe7, 0x11, 0x0a, 0x7f, 0x04, 0x3c, 0x1f, 0x0b, 0x02,
  0x22, 0x2a, 0x49, 0x18, 0x01, 0xda, 0x06, 0x15, 0x02, 0xfa, 0x11, 0x0f,
  0x0f, 0xf6, 0x58, 0x4a, 0x0d, 0xf4, 0x16, 0x06, 0x32, 0x2c, 0x2e, 0xe4,
  0x1a, 0x1b, 0x25, 0x5b, 0xff, 0x02, 0x12, 0xe0, 0x32, 0x12, 0x00, 0xce,
  0xfb, 0xd1, 0xfa, 0x07, 0x17, 0x04, 0x16, 0xf4, 0x17, 0x2c, 0x02, 0x01,
  0x0b, 0x11, 0x06, 0x0c, 0x04, 0x34, 0xe7, 0x66, 0xed, 0xff, 0xf5, 0x60,
  0xd5, 0x11, 0x1c, 0x08, 0xf2, 0xe2, 0xc2, 0x12, 0x00, 0xe2, 0xe7, 0x10,
  0xe5, 0xe0, 0xdb, 0x0f, 0x04, 0xfe, 0x2e, 0xfc, 0xf2, 0xf3, 0x20, 0x1f,
  0x16, 0x42, 0xfb, 0xce, 0x0b, 0x19, 0xcf, 0x08, 0xd3, 0xcc, 0xeb, 0xf1,
  0xa0, 0x2d, 0xbc, 0xce, 0xba, 0x1c, 0x02, 0x17, 0xc8, 0xaa, 0xe8, 0x25,
  0x43, 0xfa, 0xf2, 0xd8, 0x35, 0xea, 0x5c, 0x03, 0x16, 0x4d, 0x30, 0xcd,
  0x0c, 0x01, 0xcc, 0xff, 0x06, 0x08, 0xc1, 0xf3, 0xf4, 0x1d, 0x15, 0xf6,
  0xd4, 0xdf, 0xe4, 0xcc, 0xb7, 0xf0, 0x8d, 0x09, 0x0f, 0xf2, 0xc2, 0xdf,
  0x81, 0x0b, 0x1c, 0xf3, 0xc5, 0xdf, 0xf4, 0xfa, 0xef, 0x0b, 0x17, 0xf2,
  0xda, 0x02, 0xee, 0x2d, 0xf2, 0xf0, 0xb0, 0xeb, 0xd6, 0xf8, 0xe1, 0xf3,
  0xa2, 0x1d, 0x01, 0xc2, 0xcd, 0xee, 0x8d, 0x05, 0xe6, 0xb5, 0xdc, 0x07,
  0x15, 0xb8, 0x0d, 0x15, 0xf2, 0x08, 0xee, 0x14, 0x1a, 0x01, 0xef, 0xf8,
  0x0f, 0x00, 0xe1, 0xfc, 0xf8, 0x02, 0xec, 0x0c, 0x0d, 0x0a, 0xf1, 0xe3,
  0x12, 0x29, 0x05, 0xf6, 0xf6, 0x0a, 0x1a, 0xf8, 0x0d, 0x15, 0xf7, 0xf3,
  0xf6, 0xf9, 0xe9, 0x0c, 0xe7, 0x8b, 0x03, 0xff, 0xfb, 0xdc, 0xfd, 0xda,
  0xef, 0x04, 0x08, 0xfa, 0xe1, 0xca, 0x24, 0x06, 0x15, 0x1e, 0xe8, 0xa3,
  0xfe, 0x16, 0xf9, 0xe8, 0xdf, 0x06, 0x1b, 0xac, 0x05, 0x06, 0xf7, 0x9f,
  0xff, 0x19, 0x13, 0x0a, 0x16, 0xc7, 0xf3, 0xfa, 0x1d, 0xfa, 0xf5, 0xd7,
  0xff, 0x06, 0x1d, 0xeb, 0xdd, 0x84, 0xbd, 0x34, 0x58, 0xc3, 0xd9, 0xcb,
  0x55, 0xd6, 0xf5, 0xf1, 0xdb, 0xd5, 0x14, 0xc3, 0x0b, 0xbd, 0xf1, 0xd7,
  0x3d, 0x17, 0x3d, 0xbf, 0xfd, 0x1d, 0x43, 0x3a, 0x15, 0xd8, 0x03, 0x7f,
  0x0a, 0x06, 0x1d, 0x00, 0x1a, 0x22, 0x5c, 0xff, 0xf6, 0xf4, 0xc1, 0x0b,
  0xda, 0x47, 0x55, 0x3a, 0xef, 0xe6, 0x00, 0x61, 0x08, 0xd6, 0x53, 0x28,
  0x1b, 0x70, 0x64, 0xe4, 0xf2, 0x0e, 0xdb, 0xff, 0x25, 0xd8, 0xe2, 0xf9,
  0x45, 0xf5, 0xd6, 0xab, 0xba, 0xe6, 0x41, 0x1a, 0x35, 0xec, 0xc1, 0x2a,
  0xfe, 0xc6, 0x0d, 0xff, 0xf4, 0x2f, 0x57, 0xf8, 0x2b, 0xcb, 0xe1, 0x26,
  0x43, 0x1a, 0x53, 0x02, 0x13, 0x06, 0xbd, 0xfb, 0xf9, 0x04, 0x23, 0x59,
  0xef, 0xde, 0x2f, 0x1d, 0xf6, 0x0f, 0xc0, 0xc6, 0x20, 0x14, 0xfc, 0xf2,
  0xeb, 0xc3, 0xf5, 0x0c, 0xbf, 0x40, 0x3d, 0x1a, 0x12, 0x1a, 0x29, 0x2a,
  0x0f, 0x21, 0x0c, 0x15, 0x0c, 0xff, 0x23, 0x20, 0x39, 0x60, 0x1b, 0x19,
  0x44, 0xf0, 0xf3, 0x37, 0xe5, 0xd8, 0x09, 0xda, 0x35, 0x3c, 0x21, 0x2d,
  0xe7, 0xfa, 0xcf, 0x1d, 0xfe, 0xe8, 0xf4, 0x81, 0xc9, 0xf5, 0x05, 0x07,
  0xf6, 0xd3, 0xe3, 0xf0, 0x03, 0xe0, 0x14, 0xe9, 0xe3, 0xee, 0xeb, 0xd9,
  0xd6, 0xe3, 0xf0, 0xff, 0x09, 0x07, 0xe0, 0x06, 0xe4, 0xd7, 0xd0, 0xff,
  0xd4, 0xe3, 0xec, 0xe5, 0x04, 0x2d, 0xe6, 0x19, 0xe4, 0xdd, 0xc3, 0xf9,
  0xd4, 0x00, 0xe9, 0xbe, 0xfd, 0xf6, 0xf4, 0x03, 0xf4, 0xbd, 0x2a, 0x04,
  0xe8, 0xdc, 0xf1, 0xc5, 0x06, 0xec, 0xcf, 0xfa, 0x13, 0x08, 0xf0, 0xeb,
  0xbb, 0x32, 0xdb, 0x03, 0xee, 0x04, 0xd2, 0x19, 0xd2, 0xea, 0xdd, 0xfa,
  0xf0, 0xdf, 0xf0, 0xd9, 0x0b, 0x02, 0x12, 0xef, 0x92, 0xfd, 0xf7, 0x1b,
  0x20, 0x2a, 0x22, 0x27, 0x02, 0x01, 0x01, 0x04, 0x25, 0x13, 0xfb, 0x1e,
  0xe3, 0x1a, 0xcc, 0xe0, 0x01, 0x10, 0xf2, 0x09, 0xea, 0xf7, 0xf3, 0xff,
  0xba, 0xcd, 0x06, 0xdb, 0xfe, 0xd3, 0xfb, 0xe5, 0x24, 0x0f, 0x08, 0xe5,
  0x04, 0xff, 0x03, 0x0b, 0xd7, 0x0d, 0x17, 0x02, 0xb8, 0xef, 0xda, 0xfc,
  0x35, 0x28, 0xdf, 0x15, 0x04, 0xef, 0xad, 0xe6, 0xea, 0xc1, 0xb2, 0xd3,
  0x23, 0x07, 0xfe, 0xdc, 0xcc, 0x16, 0x81, 0xef, 0x15, 0xc8, 0xc1, 0x07,
  0xc5, 0x4e, 0x05, 0xaa, 0xfe, 0x48, 0xbc, 0x6d, 0xf4, 0xb0, 0x1e, 0x7c,
  0x8f, 0x32, 0xb1, 0xaa, 0xf2, 0xf3, 0xf5, 0x0e, 0xd0, 0xb2, 0xe0, 0xeb,
  0xdb, 0x18, 0xc4, 0xee, 0x1a, 0x1d, 0xc8, 0x24, 0xe3, 0xc6, 0x14, 0x1e,
  0x30, 0x2c, 0xf5, 0xc0, 0x27, 0x46, 0xcf, 0x20, 0x20, 0xd2, 0xfc, 0x13,
  0x1e, 0xea, 0xf8, 0xfe, 0x11, 0xfd, 0x14, 0x0a, 0xf2, 0xe3, 0x14, 0xf4,
  0x16, 0x27, 0x05, 0x1a, 0xf8, 0x23, 0x6b, 0x13, 0x42, 0xde, 0x24, 0xe8,
  0xf4, 0x0e, 0x12, 0xf4, 0xf8, 0x08, 0x00, 0xf3, 0xff, 0xf6, 0x11, 0x26,
  0x00, 0x29, 0x1c, 0x24, 0xf9, 0x03, 0xea, 0x17, 0x54, 0x2a, 0x15, 0x13,
  0x14, 0xff, 0x17, 0x2c, 0xf3, 0x22, 0x29, 0x19, 0x1f, 0xf5, 0x1d, 0xb2,
  0x11, 0x02, 0x09, 0x2d, 0x04, 0xfc, 0x02, 0x18, 0x16, 0x3f, 0xf1, 0x28,
  0x04, 0x0d, 0x06, 0x02, 0xef, 0x21, 0x25, 0x19, 0x26, 0x2e, 0x1a, 0x7a,
  0xde, 0xf6, 0x28, 0xc6, 0xa4, 0xde, 0xf2, 0x05, 0x13, 0xc8, 0xce, 0x1b,
  0x81, 0xe7, 0x19, 0xbf, 0x9c, 0x02, 0xd4, 0x49, 0x05, 0xa7, 0xc9, 0x2a,
  0x86, 0x44, 0x1b, 0xbc, 0xd9, 0x41, 0xcf, 0xfc, 0xc9, 0xb8, 0xd6, 0x0e,
  0x06, 0x1a, 0xd1, 0x99, 0xb6, 0xfe, 0xc9, 0x0b, 0xb6, 0xef, 0xf0, 0xfe,
  0x28, 0x2f, 0xe8, 0xcc, 0x29, 0x17, 0x3c, 0x18, 0xf8, 0xdb, 0xdf, 0x2e,
  0xda, 0x33, 0x08, 0xfb, 0xef, 0xe6, 0x1a, 0x01, 0xec, 0xd6, 0xea, 0x09,
  0xf4, 0x11, 0xd8, 0xed, 0xdf, 0x17, 0x17, 0x21, 0x04, 0xd9, 0x04, 0x10,
  0x5d, 0x1e, 0x1e, 0xf4, 0xf4, 0xf7, 0x0f, 0x0a, 0x2c, 0x03, 0xfb, 0xe2,
  0x25, 0xdc, 0xfe, 0xea, 0xe6, 0x48, 0x11, 0x22, 0x40, 0x1f, 0xf8, 0x1b,
  0x07, 0x0e, 0x2c, 0x1e, 0x03, 0x0b, 0x05, 0xdd, 0x24, 0x32, 0xde, 0x28,
  0x08, 0x10, 0x08, 0x0b, 0xf3, 0xbc, 0x32, 0xf8, 0xfd, 0x0c, 0x01, 0xfc,
  0x31, 0xfa, 0x44, 0x4c, 0xe1, 0x01, 0x1a, 0x2a, 0x39, 0x28, 0xcf, 0x21,
  0x00, 0x11, 0x11, 0x21, 0xe8, 0x44, 0xc6, 0x22, 0x30, 0xcd, 0x93, 0x10,
  0x14, 0xd8, 0x4b, 0xee, 0xc3, 0x10, 0x47, 0x27, 0x4d, 0x2d, 0xe5, 0x35,
  0x28, 0xe3, 0x33, 0x51, 0xf1, 0xe4, 0x51, 0xea, 0x4c, 0x5d, 0x02, 0xca,
  0x81, 0x04, 0x3a, 0xe8, 0xf4, 0xf4, 0xcc, 0xec, 0xb9, 0xef, 0xb1, 0x24,
  0xa4, 0x28, 0x20, 0x35, 0xef, 0x27, 0x11, 0x1a, 0x17, 0xca, 0xb7, 0x06,
  0xd3, 0x1c, 0x39, 0xf3, 0x0c, 0x1e, 0x18, 0x0b, 0x15, 0x09, 0x1a, 0x0c,
  0xe9, 0x25, 0xbe, 0xe7, 0xea, 0x05, 0xf9, 0x14, 0xed, 0x3f, 0x22, 0xed,
  0xf8, 0xef, 0xe2, 0x17, 0x1a, 0xec, 0xde, 0xef, 0xed, 0x0c, 0x22, 0xef,
  0x07, 0xc2, 0xcb, 0x13, 0x0c, 0xdf, 0xa9, 0x01, 0xd9, 0x24, 0xee, 0xd4,
  0xb8, 0xef, 0xb9, 0xd9, 0xf5, 0xe6, 0x98, 0xe5, 0xb1, 0xd7, 0xef, 0x00,
  0xf4, 0x21, 0xb3, 0xf3, 0xfd, 0x02, 0x02, 0xcb, 0xc7, 0xc4, 0x00, 0xff,
  0xe7, 0x98, 0xe1, 0xf3, 0xf1, 0xcc, 0xee, 0x42, 0xb5, 0xb9, 0xf8, 0x0b,
  0xdc, 0x26, 0xcb, 0xbf, 0x0b, 0xf7, 0xd7, 0x2c, 0xed, 0xcd, 0xf9, 0x8f,
  0xfa, 0xfe, 0xff, 0xff, 0x04, 0x00, 0x00, 0x00, 0xa0, 0x00, 0x00, 0x00,
  0xca, 0x00, 0x00, 0x00, 0x00, 0x01, 0x00, 0x00, 0x5a, 0x01, 0x00, 0x00,
  0xa3, 0x00, 0x00, 0x00, 0xca, 0x01, 0x00, 0x00, 0xae, 0x01, 0x00, 0x00,
  0x42, 0x00, 0x00, 0x00, 0xdf, 0x00, 0x00, 0x00, 0xea, 0x00, 0x00, 0x00,
  0x4d, 0x01, 0x00, 0x00, 0x50, 0x01, 0x00, 0x00, 0x62, 0x00, 0x00, 0x00,
  0x80, 0xff, 0xff, 0xff, 0x06, 0x01, 0x00, 0x00, 0xae, 0x00, 0x00, 0x00,
  0x1e, 0x01, 0x00, 0x00, 0x6b, 0x01, 0x00, 0x00, 0xc3, 0x01, 0x00, 0x00,
  0x07, 0x01, 0x00, 0x00, 0x16, 0x00, 0x00, 0x00, 0xce, 0x00, 0x00, 0x00,
  0x8b, 0xff, 0xff, 0xff, 0x2e, 0x00, 0x00, 0x00, 0x9c, 0x00, 0x00, 0x00,
  0xdc, 0x00, 0x00, 0x00, 0x83, 0x00, 0x00, 0x00, 0xf1, 0xff, 0xff, 0xff,
  0x16, 0x01, 0x00, 0x00, 0x76, 0x01, 0x00, 0x00, 0x30, 0x00, 0x00, 0x00,
  0x07, 0x00, 0x00, 0x00, 0xdf, 0x00, 0x00, 0x00, 0x98, 0x00, 0x00, 0x00,
  0x16, 0x00, 0x00, 0x00, 0x18, 0x01, 0x00, 0x00, 0x9b, 0x00, 0x00, 0x00,
  0xb6, 0xff, 0xff, 0xff, 0xd9, 0x00, 0x00, 0x00, 0xf5, 0x00, 0x00, 0x00,
  0x29, 0x01, 0x00, 0x00, 0xa6, 0xff, 0xff, 0xff, 0x04, 0x00, 0x00, 0x00,
  0x28, 0x00, 0x00, 0x00, 0x36, 0x64, 0x7f, 0xde, 0x5e, 0x6b, 0x30, 0xbd,
  0xe3, 0x26, 0x20, 0x2c, 0xc9, 0xe7, 0x3b, 0x39, 0x73, 0x3c, 0xaf, 0xb1,
  0x4b, 0xb7, 0x47, 0x32, 0x42, 0xe6, 0x42, 0xda, 0x90, 0xa2, 0x35, 0x33,
  0x50, 0xc4, 0x27, 0xef, 0x3a, 0xe4, 0xbc, 0x68, 0xda, 0xff, 0xff, 0xff,
  0x04, 0x00, 0x00, 0x00, 0x04, 0x00, 0x00, 0x00, 0xb4, 0xff, 0xff, 0xff,
  0xea, 0xff, 0xff, 0xff, 0x04, 0x00, 0x00, 0x00, 0x08, 0x00, 0x00, 0x00,
  0xff, 0xff, 0xff, 0xff, 0x96, 0x00, 0x00, 0x00, 0x00, 0x00, 0x06, 0x00,
  0x08, 0x00, 0x04, 0x00, 0x06, 0x00, 0x00, 0x00, 0x04, 0x00, 0x00, 0x00,
  0x08, 0x00, 0x00, 0x00, 0x10, 0x00, 0x00, 0x00, 0x10, 0x00, 0x00, 0x00,
  0x3c, 0xee, 0xff, 0xff, 0x40, 0xee, 0xff, 0xff, 0x0f, 0x00, 0x00, 0x00,
  0x4d, 0x4c, 0x49, 0x52, 0x20, 0x43, 0x6f, 0x6e, 0x76, 0x65, 0x72, 0x74,
  0x65, 0x64, 0x2e, 0x00, 0x01, 0x00, 0x00, 0x00, 0x14, 0x00, 0x00, 0x00,
  0x00, 0x00, 0x0e, 0x00, 0x18, 0x00, 0x14, 0x00, 0x10, 0x00, 0x0c, 0x00,
  0x08, 0x00, 0x04, 0x00, 0x0e, 0x00, 0x00, 0x00, 0x14, 0x00, 0x00, 0x00,
  0x1c, 0x00, 0x00, 0x00, 0x84, 0x02, 0x00, 0x00, 0x88, 0x02, 0x00, 0x00,
  0x8c, 0x02, 0x00, 0x00, 0x04, 0x00, 0x00, 0x00, 0x6d, 0x61, 0x69, 0x6e,
  0x00, 0x00, 0x00, 0x00, 0x0a, 0x00, 0x00, 0x00, 0x4c, 0x02, 0x00, 0x00,
  0xfc, 0x01, 0x00, 0x00, 0x98, 0x01, 0x00, 0x00, 0x44, 0x01, 0x00, 0x00,
  0xfc, 0x00, 0x00, 0x00, 0xd4, 0x00, 0x00, 0x00, 0x84, 0x00, 0x00, 0x00,
  0x4c, 0x00, 0x00, 0x00, 0x28, 0x00, 0x00, 0x00, 0x04, 0x00, 0x00, 0x00,
  0x4a, 0xff, 0xff, 0xff, 0x0c, 0x00, 0x00, 0x00, 0x10, 0x00, 0x00, 0x00,
  0x07, 0x00, 0x00, 0x00, 0x01, 0x00, 0x00, 0x00, 0x14, 0x00, 0x00, 0x00,
  0x01, 0x00, 0x00, 0x00, 0x13, 0x00, 0x00, 0x00, 0x6a, 0xff, 0xff, 0xff,
  0x0c, 0x00, 0x00, 0x00, 0x10, 0x00, 0x00, 0x00, 0x06, 0x00, 0x00, 0x00,
  0x01, 0x00, 0x00, 0x00, 0x13, 0x00, 0x00, 0x00, 0x01, 0x00, 0x00, 0x00,
  0x12, 0x00, 0x00, 0x00, 0x76, 0xfe, 0xff, 0xff, 0x14, 0x00, 0x00, 0x00,
  0x00, 0x00, 0x00, 0x08, 0x10, 0x00, 0x00, 0x00, 0x14, 0x00, 0x00, 0x00,
  0x05, 0x00, 0x00, 0x00, 0x18, 0xef, 0xff, 0xff, 0x01, 0x00, 0x00, 0x00,
  0x12, 0x00, 0x00, 0x00, 0x03, 0x00, 0x00, 0x00, 0x11, 0x00, 0x00, 0x00,
  0x04, 0x00, 0x00, 0x00, 0x03, 0x00, 0x00, 0x00, 0xaa, 0xfe, 0xff, 0xff,
  0x1c, 0x00, 0x00, 0x00, 0x00, 0x00, 0x00, 0x08, 0x1c, 0x00, 0x00, 0x00,
  0x20, 0x00, 0x00, 0x00, 0x05, 0x00, 0x00, 0x00, 0x00, 0x00, 0x06, 0x00,
  0x08, 0x00, 0x07, 0x00, 0x06, 0x00, 0x00, 0x00, 0x00, 0x00, 0x00, 0x01,
  0x01, 0x00, 0x00, 0x00, 0x11, 0x00, 0x00, 0x00, 0x03, 0x00, 0x00, 0x00,
  0x10, 0x00, 0x00, 0x00, 0x06, 0x00, 0x00, 0x00, 0x05, 0x00, 0x00, 0x00,
  0x00, 0x00, 0x0a, 0x00, 0x10, 0x00, 0x0c, 0x00, 0x08, 0x00, 0x04, 0x00,
  0x0a, 0x00, 0x00, 0x00, 0x0c, 0x00, 0x00, 0x00, 0x10, 0x00, 0x00, 0x00,
  0x04, 0x00, 0x00, 0x00, 0x01, 0x00, 0x00, 0x00, 0x10, 0x00, 0x00, 0x00,
  0x02, 0x00, 0x00, 0x00, 0x0f, 0x00, 0x00, 0x00, 0x02, 0x00, 0x00, 0x00,
  0x1a, 0xff, 0xff, 0xff, 0x14, 0x00, 0x00, 0x00, 0x00, 0x00, 0x00, 0x01,
  0x20, 0x00, 0x00, 0x00, 0x24, 0x00, 0x00, 0x00, 0x02, 0x00, 0x00, 0x00,
  0x6c, 0xff, 0xff, 0xff, 0x00, 0x00, 0x00, 0x01, 0x01, 0x00, 0x00, 0x00,
  0x01, 0x00, 0x00, 0x00, 0x00, 0x00, 0x00, 0x01, 0x01, 0x00, 0x00, 0x00,
  0x0f, 0x00, 0x00, 0x00, 0x03, 0x00, 0x00, 0x00, 0x0e, 0x00, 0x00, 0x00,
  0x08, 0x00, 0x00, 0x00, 0x07, 0x00, 0x00, 0x00, 0x5e, 0xff, 0xff, 0xff,
  0x24, 0x00, 0x00, 0x00, 0x00, 0x00, 0x00, 0x05, 0x34, 0x00, 0x00, 0x00,
  0x38, 0x00, 0x00, 0x00, 0x03, 0x00, 0x00, 0x00, 0x00, 0x00, 0x0e, 0x00,
  0x18, 0x00, 0x17, 0x00, 0x10, 0x00, 0x0c, 0x00, 0x08, 0x00, 0x04, 0x00,
  0x0e, 0x00, 0x00, 0x00, 0x02, 0x00, 0x00, 0x00, 0x02, 0x00, 0x00, 0x00,
  0x02, 0x00, 0x00, 0x00, 0x02, 0x00, 0x00, 0x00, 0x00, 0x00, 0x00, 0x01,
  0x01, 0x00, 0x00, 0x00, 0x0e, 0x00, 0x00, 0x00, 0x01, 0x00, 0x00, 0x00,
  0x0d, 0x00, 0x00, 0x00, 0xae, 0xff, 0xff, 0xff, 0x20, 0x00, 0x00, 0x00,
  0x00, 0x00, 0x00, 0x01, 0x2c, 0x00, 0x00, 0x00, 0x30, 0x00, 0x00, 0x00,
  0x02, 0x00, 0x00, 0x00, 0x0c, 0x00, 0x14, 0x00, 0x13, 0x00, 0x0c, 0x00,
  0x08, 0x00, 0x07, 0x00, 0x0c, 0x00, 0x00, 0x00, 0x00, 0x00, 0x00, 0x01,
  0x01, 0x00, 0x00, 0x00, 0x01, 0x00, 0x00, 0x00, 0x00, 0x00, 0x00, 0x01,
  0x01, 0x00, 0x00, 0x00, 0x0d, 0x00, 0x00, 0x00, 0x03, 0x00, 0x00, 0x00,
  0x0c, 0x00, 0x00, 0x00, 0x0a, 0x00, 0x00, 0x00, 0x09, 0x00, 0x00, 0x00,
  0x00, 0x00, 0x0e, 0x00, 0x18, 0x00, 0x14, 0x00, 0x10, 0x00, 0x0c, 0x00,
  0x0b, 0x00, 0x04, 0x00, 0x0e, 0x00, 0x00, 0x00, 0x20, 0x00, 0x00, 0x00,
  0x00, 0x00, 0x00, 0x0f, 0x20, 0x00, 0x00, 0x00, 0x24, 0x00, 0x00, 0x00,
  0x01, 0x00, 0x00, 0x00, 0x0c, 0x00, 0x08, 0x00, 0x00, 0x00, 0x00, 0x00,
  0x00, 0x00, 0x07, 0x00, 0x0c, 0x00, 0x00, 0x00, 0x00, 0x00, 0x00, 0x01,
  0x01, 0x00, 0x00, 0x00, 0x0c, 0x00, 0x00, 0x00, 0x02, 0x00, 0x00, 0x00,
  0x0b, 0x00, 0x00, 0x00, 0x01, 0x00, 0x00, 0x00, 0x00, 0x00, 0x0a, 0x00,
  0x0c, 0x00, 0x00, 0x00, 0x08, 0x00, 0x04, 0x00, 0x0a, 0x00, 0x00, 0x00,
  0x08, 0x00, 0x00, 0x00, 0x0c, 0x00, 0x00, 0x00, 0x01, 0x00, 0x00, 0x00,
  0x0b, 0x00, 0x00, 0x00, 0x01, 0x00, 0x00, 0x00, 0x00, 0x00, 0x00, 0x00,
  0x01, 0x00, 0x00, 0x00, 0x14, 0x00, 0x00, 0x00, 0x01, 0x00, 0x00, 0x00,
  0x00, 0x00, 0x00, 0x00, 0x15, 0x00, 0x00, 0x00, 0xbc, 0x0e, 0x00, 0x00,
  0x64, 0x0e, 0x00, 0x00, 0x0c, 0x0e, 0x00, 0x00, 0x9c, 0x0d, 0x00, 0x00,
  0x34, 0x0d, 0x00, 0x00, 0x00, 0x0b, 0x00, 0x00, 0xc4, 0x08, 0x00, 0x00,
  0x28, 0x08, 0x00, 0x00, 0x7c, 0x07, 0x00, 0x00, 0xe0, 0x06, 0x00, 0x00,
  0x34, 0x06, 0x00, 0x00, 0xb0, 0x05, 0x00, 0x00, 0xf4, 0x04, 0x00, 0x00,
  0x28, 0x04, 0x00, 0x00, 0x8c, 0x03, 0x00, 0x00, 0xb8, 0x02, 0x00, 0x00,
  0x34, 0x02, 0x00, 0x00, 0x80, 0x01, 0x00, 0x00, 0xe4, 0x00, 0x00, 0x00,
  0x60, 0x00, 0x00, 0x00, 0x04, 0x00, 0x00, 0x00, 0xae, 0xf1, 0xff, 0xff,
  0x00, 0x00, 0x00, 0x01, 0x14, 0x00, 0x00, 0x00, 0x1c, 0x00, 0x00, 0x00,
  0x1c, 0x00, 0x00, 0x00, 0x15, 0x00, 0x00, 0x00, 0x34, 0x00, 0x00, 0x00,
  0x02, 0x00, 0x00, 0x00, 0xff, 0xff, 0xff, 0xff, 0x01, 0x00, 0x00, 0x00,
  0x90, 0xf1, 0xff, 0xff, 0x1b, 0x00, 0x00, 0x00, 0x53, 0x74, 0x61, 0x74,
  0x65, 0x66, 0x75, 0x6c, 0x50, 0x61, 0x72, 0x74, 0x69, 0x74, 0x69, 0x6f,
  0x6e, 0x65, 0x64, 0x43, 0x61, 0x6c, 0x6c, 0x5f, 0x31, 0x3a, 0x30, 0x00,
  0x02, 0x00, 0x00, 0x00, 0x01, 0x00, 0x00, 0x00, 0x01, 0x00, 0x00, 0x00,
  0xe6, 0xfa, 0xff, 0xff, 0x00, 0x00, 0x00, 0x01, 0x18, 0x00, 0x00, 0x00,
  0x20, 0x00, 0x00, 0x00, 0x40, 0x00, 0x00, 0x00, 0x14, 0x00, 0x00, 0x00,
  0x00, 0x00, 0x00, 0x09, 0x58, 0x00, 0x00, 0x00, 0x02, 0x00, 0x00, 0x00,
  0xff, 0xff, 0xff, 0xff, 0x01, 0x00, 0x00, 0x00, 0x14, 0xf3, 0xff, 0xff,
  0x08, 0x00, 0x00, 0x00, 0x14, 0x00, 0x00, 0x00, 0x01, 0x00, 0x00, 0x00,
  0x80, 0xff, 0xff, 0xff, 0xff, 0xff, 0xff, 0xff, 0x00, 0x00, 0x00, 0x00,
  0x01, 0x00, 0x00, 0x00, 0x00, 0x00, 0x80, 0x3b, 0x1c, 0x00, 0x00, 0x00,
  0x53, 0x74, 0x61, 0x74, 0x65, 0x66, 0x75, 0x6c, 0x50, 0x61, 0x72, 0x74,
  0x69, 0x74, 0x69, 0x6f, 0x6e, 0x65, 0x64, 0x43, 0x61, 0x6c, 0x6c, 0x5f,
  0x31, 0x3a, 0x30, 0x31, 0x00, 0x00, 0x00, 0x00, 0x02, 0x00, 0x00, 0x00,
  0x01, 0x00, 0x00, 0x00, 0x01, 0x00, 0x00, 0x00, 0x66, 0xfb, 0xff, 0xff,
  0x00, 0x00, 0x00, 0x01, 0x18, 0x00, 0x00, 0x00, 0x20, 0x00, 0x00, 0x00,
  0x3c, 0x00, 0x00, 0x00, 0x13, 0x00, 0x00, 0x00, 0x00, 0x00, 0x00, 0x09,
  0x70, 0x00, 0x00, 0x00, 0x02, 0x00, 0x00, 0x00, 0xff, 0xff, 0xff, 0xff,
  0x01, 0x00, 0x00, 0x00, 0x94, 0xf3, 0xff, 0xff, 0x08, 0x00, 0x00, 0x00,
  0x10, 0x00, 0x00, 0x00, 0x01, 0x00, 0x00, 0x00, 0x5e, 0x00, 0x00, 0x00,
  0x00, 0x00, 0x00, 0x00, 0x01, 0x00, 0x00, 0x00, 0xfe, 0x27, 0x36, 0x3f,
  0x38, 0x00, 0x00, 0x00, 0x73, 0x65, 0x71, 0x75, 0x65, 0x6e, 0x74, 0x69,
  0x61, 0x6c, 0x5f, 0x31, 0x2f, 0x64, 0x65, 0x6e, 0x73, 0x65, 0x5f, 0x31,
  0x5f, 0x32, 0x2f, 0x4d, 0x61, 0x74, 0x4d, 0x75, 0x6c, 0x3b, 0x73, 0x65,
  0x71, 0x75, 0x65, 0x6e, 0x74, 0x69, 0x61, 0x6c, 0x5f, 0x31, 0x2f, 0x64,
  0x65, 0x6e, 0x73, 0x65, 0x5f, 0x31, 0x5f, 0x32, 0x2f, 0x41, 0x64, 0x64,
  0x00, 0x00, 0x00, 0x00, 0x02, 0x00, 0x00, 0x00, 0x01, 0x00, 0x00, 0x00,
  0x01, 0x00, 0x00, 0x00, 0xfe, 0xfb, 0xff, 0xff, 0x00, 0x00, 0x00, 0x01,
  0x18, 0x00, 0x00, 0x00, 0x20, 0x00, 0x00, 0x00, 0x40, 0x00, 0x00, 0x00,
  0x12, 0x00, 0x00, 0x00, 0x00, 0x00, 0x00, 0x09, 0x88, 0x00, 0x00, 0x00,
  0x02, 0x00, 0x00, 0x00, 0xff, 0xff, 0xff, 0xff, 0x28, 0x00, 0x00, 0x00,
  0x2c, 0xf4, 0xff, 0xff, 0x08, 0x00, 0x00, 0x00, 0x14, 0x00, 0x00, 0x00,
  0x01, 0x00, 0x00, 0x00, 0x80, 0xff, 0xff, 0xff, 0xff, 0xff, 0xff, 0xff,
  0x00, 0x00, 0x00, 0x00, 0x01, 0x00, 0x00, 0x00, 0xe7, 0xc2, 0x39, 0x3e,
  0x4e, 0x00, 0x00, 0x00, 0x73, 0x65, 0x71, 0x75, 0x65, 0x6e, 0x74, 0x69,
  0x61, 0x6c, 0x5f, 0x31, 0x2f, 0x64, 0x65, 0x6e, 0x73, 0x65, 0x5f, 0x31,
  0x2f, 0x4d, 0x61, 0x74, 0x4d, 0x75, 0x6c, 0x3b, 0x73, 0x65, 0x71, 0x75,
  0x65, 0x6e, 0x74, 0x69, 0x61, 0x6c, 0x5f, 0x31, 0x2f, 0x64, 0x65, 0x6e,
  0x73, 0x65, 0x5f, 0x31, 0x2f, 0x52, 0x65, 0x6c, 0x75, 0x3b, 0x73, 0x65,
  0x71, 0x75, 0x65, 0x6e, 0x74, 0x69, 0x61, 0x6c, 0x5f, 0x31, 0x2f, 0x64,
  0x65, 0x6e, 0x73, 0x65, 0x5f, 0x31, 0x2f, 0x41, 0x64, 0x64, 0x00, 0x00,
  0x02, 0x00, 0x00, 0x00, 0x01, 0x00, 0x00, 0x00, 0x28, 0x00, 0x00, 0x00,
  0xae, 0xfc, 0xff, 0xff, 0x00, 0x00, 0x00, 0x01, 0x18, 0x00, 0x00, 0x00,
  0x20, 0x00, 0x00, 0x00, 0x40, 0x00, 0x00, 0x00, 0x11, 0x00, 0x00, 0x00,
  0x00, 0x00, 0x00, 0x09, 0x58, 0x00, 0x00, 0x00, 0x02, 0x00, 0x00, 0x00,
  0xff, 0xff, 0xff, 0xff, 0x96, 0x00, 0x00, 0x00, 0xdc, 0xf4, 0xff, 0xff,
  0x08, 0x00, 0x00, 0x00, 0x14, 0x00, 0x00, 0x00, 0x01, 0x00, 0x00, 0x00,
  0x80, 0xff, 0xff, 0xff, 0xff, 0xff, 0xff, 0xff, 0x00, 0x00, 0x00, 0x00,
  0x01, 0x00, 0x00, 0x00, 0xa6, 0x68, 0x33, 0x3e, 0x1e, 0x00, 0x00, 0x00,
  0x73, 0x65, 0x71, 0x75, 0x65, 0x6e, 0x74, 0x69, 0x61, 0x6c, 0x5f, 0x31,
  0x2f, 0x66, 0x6c, 0x61, 0x74, 0x74, 0x65, 0x6e, 0x5f, 0x31, 0x2f, 0x52,
  0x65, 0x73, 0x68, 0x61, 0x70, 0x65, 0x00, 0x00, 0x02, 0x00, 0x00, 0x00,
  0x01, 0x00, 0x00, 0x00, 0x96, 0x00, 0x00, 0x00, 0x2e, 0xfd, 0xff, 0xff,
  0x00, 0x00, 0x00, 0x01, 0x18, 0x00, 0x00, 0x00, 0x28, 0x00, 0x00, 0x00,
  0x48, 0x00, 0x00, 0x00, 0x10, 0x00, 0x00, 0x00, 0x00, 0x00, 0x00, 0x09,
  0xa0, 0x00, 0x00, 0x00, 0x04, 0x00, 0x00, 0x00, 0xff, 0xff, 0xff, 0xff,
  0x05, 0x00, 0x00, 0x00, 0x05, 0x00, 0x00, 0x00, 0x06, 0x00, 0x00, 0x00,
  0x64, 0xf5, 0xff, 0xff, 0x08, 0x00, 0x00, 0x00, 0x14, 0x00, 0x00, 0x00,
  0x01, 0x00, 0x00, 0x00, 0x80, 0xff, 0xff, 0xff, 0xff, 0xff, 0xff, 0xff,
  0x00, 0x00, 0x00, 0x00, 0x01, 0x00, 0x00, 0x00, 0xa6, 0x68, 0x33, 0x3e,
  0x5d, 0x00, 0x00, 0x00, 0x73, 0x65, 0x71, 0x75, 0x65, 0x6e, 0x74, 0x69,
  0x61, 0x6c, 0x5f, 0x31, 0x2f, 0x63, 0x6f, 0x6e, 0x76, 0x32, 0x64, 0x5f,
  0x31, 0x5f, 0x32, 0x2f, 0x52, 0x65, 0x6c, 0x75, 0x3b, 0x73, 0x65, 0x71,
  0x75, 0x65, 0x6e, 0x74, 0x69, 0x61, 0x6c, 0x5f, 0x31, 0x2f, 0x63, 0x6f,
  0x6e, 0x76, 0x32, 0x64, 0x5f, 0x31, 0x5f, 0x32, 0x2f, 0x61, 0x64, 0x64,
  0x3b, 0x73, 0x65, 0x71, 0x75, 0x65, 0x6e, 0x74, 0x69, 0x61, 0x6c, 0x5f,
  0x31, 0x2f, 0x63, 0x6f, 0x6e, 0x76, 0x32, 0x64, 0x5f, 0x31, 0x5f, 0x32,
  0x2f, 0x63, 0x6f, 0x6e, 0x76, 0x6f, 0x6c, 0x75, 0x74, 0x69, 0x6f, 0x6e,
  0x3b, 0x00, 0x00, 0x00, 0x04, 0x00, 0x00, 0x00, 0x01, 0x00, 0x00, 0x00,
  0x05, 0x00, 0x00, 0x00, 0x05, 0x00, 0x00, 0x00, 0x06, 0x00, 0x00, 0x00,
  0xfe, 0xfd, 0xff, 0xff, 0x00, 0x00, 0x00, 0x01, 0x18, 0x00, 0x00, 0x00,
  0x28, 0x00, 0x00, 0x00, 0x48, 0x00, 0x00, 0x00, 0x0f, 0x00, 0x00, 0x00,
  0x00, 0x00, 0x00, 0x09, 0x68, 0x00, 0x00, 0x00, 0x04, 0x00, 0x00, 0x00,
  0xff, 0xff, 0xff, 0xff, 0x07, 0x00, 0x00, 0x00, 0x07, 0x00, 0x00, 0x00,
  0x06, 0x00, 0x00, 0x00, 0x34, 0xf6, 0xff, 0xff, 0x08, 0x00, 0x00, 0x00,
  0x14, 0x00, 0x00, 0x00, 0x01, 0x00, 0x00, 0x00, 0x80, 0xff, 0xff, 0xff,
  0xff, 0xff, 0xff, 0xff, 0x00, 0x00, 0x00, 0x00, 0x01, 0x00, 0x00, 0x00,
  0xd5, 0x13, 0xb0, 0x3e, 0x26, 0x00, 0x00, 0x00, 0x73, 0x65, 0x71, 0x75,
  0x65, 0x6e, 0x74, 0x69, 0x61, 0x6c, 0x5f, 0x31, 0x2f, 0x6d, 0x61, 0x78,
  0x5f, 0x70, 0x6f, 0x6f, 0x6c, 0x69, 0x6e, 0x67, 0x32, 0x64, 0x5f, 0x31,
  0x2f, 0x4d, 0x61, 0x78, 0x50, 0x6f, 0x6f, 0x6c, 0x32, 0x64, 0x00, 0x00,
  0x04, 0x00, 0x00, 0x00, 0x01, 0x00, 0x00, 0x00, 0x07, 0x00, 0x00, 0x00,
  0x07, 0x00, 0x00, 0x00, 0x06, 0x00, 0x00, 0x00, 0x96, 0xfe, 0xff, 0xff,
  0x00, 0x00, 0x00, 0x01, 0x18, 0x00, 0x00, 0x00, 0x28, 0x00, 0x00, 0x00,
  0x48, 0x00, 0x00, 0x00, 0x0e, 0x00, 0x00, 0x00, 0x00, 0x00, 0x00, 0x09,
  0x98, 0x00, 0x00, 0x00, 0x04, 0x00, 0x00, 0x00, 0xff, 0xff, 0xff, 0xff,
  0x0e, 0x00, 0x00, 0x00, 0x0e, 0x00, 0x00, 0x00, 0x06, 0x00, 0x00, 0x00,
  0xcc, 0xf6, 0xff, 0xff, 0x08, 0x00, 0x00, 0x00, 0x14, 0x00, 0x00, 0x00,
  0x01, 0x00, 0x00, 0x00, 0x80, 0xff, 0xff, 0xff, 0xff, 0xff, 0xff, 0xff,
  0x00, 0x00, 0x00, 0x00, 0x01, 0x00, 0x00, 0x00, 0xd5, 0x13, 0xb0, 0x3e,
  0x57, 0x00, 0x00, 0x00, 0x73, 0x65, 0x71, 0x75, 0x65, 0x6e, 0x74, 0x69,
  0x61, 0x6c, 0x5f, 0x31, 0x2f, 0x63, 0x6f, 0x6e, 0x76, 0x32, 0x64, 0x5f,
  0x31, 0x2f, 0x52, 0x65, 0x6c, 0x75, 0x3b, 0x73, 0x65, 0x71, 0x75, 0x65,
  0x6e, 0x74, 0x69, 0x61, 0x6c, 0x5f, 0x31, 0x2f, 0x63, 0x6f, 0x6e, 0x76,
  0x32, 0x64, 0x5f, 0x31, 0x2f, 0x61, 0x64, 0x64, 0x3b, 0x73, 0x65, 0x71,
  0x75, 0x65, 0x6e, 0x74, 0x69, 0x61, 0x6c, 0x5f, 0x31, 0x2f, 0x63, 0x6f,
  0x6e, 0x76, 0x32, 0x64, 0x5f, 0x31, 0x2f, 0x63, 0x6f, 0x6e, 0x76, 0x6f,
  0x6c, 0x75, 0x74, 0x69, 0x6f, 0x6e, 0x3b, 0x00, 0x04, 0x00, 0x00, 0x00,
  0x01, 0x00, 0x00, 0x00, 0x0e, 0x00, 0x00, 0x00, 0x0e, 0x00, 0x00, 0x00,
  0x06, 0x00, 0x00, 0x00, 0x5e, 0xff, 0xff, 0xff, 0x00, 0x00, 0x00, 0x01,
  0x18, 0x00, 0x00, 0x00, 0x28, 0x00, 0x00, 0x00, 0x48, 0x00, 0x00, 0x00,
  0x0d, 0x00, 0x00, 0x00, 0x00, 0x00, 0x00, 0x09, 0x70, 0x00, 0x00, 0x00,
  0x04, 0x00, 0x00, 0x00, 0xff, 0xff, 0xff, 0xff, 0x10, 0x00, 0x00, 0x00,
  0x10, 0x00, 0x00, 0x00, 0x01, 0x00, 0x00, 0x00, 0x94, 0xf7, 0xff, 0xff,
  0x08, 0x00, 0x00, 0x00, 0x14, 0x00, 0x00, 0x00, 0x01, 0x00, 0x00, 0x00,
  0x80, 0xff, 0xff, 0xff, 0xff, 0xff, 0xff, 0xff, 0x00, 0x00, 0x00, 0x00,
  0x01, 0x00, 0x00, 0x00, 0x9a, 0xa1, 0xa8, 0x3e, 0x2d, 0x00, 0x00, 0x00,
  0x73, 0x65, 0x71, 0x75, 0x65, 0x6e, 0x74, 0x69, 0x61, 0x6c, 0x5f, 0x31,
  0x2f, 0x72, 0x65, 0x73, 0x69, 0x7a, 0x69, 0x6e, 0x67, 0x5f, 0x31, 0x2f,
  0x72, 0x65, 0x73, 0x69, 0x7a, 0x65, 0x2f, 0x52, 0x65, 0x73, 0x69, 0x7a,
  0x65, 0x42, 0x69, 0x6c, 0x69, 0x6e, 0x65, 0x61, 0x72, 0x00, 0x00, 0x00,
  0x04, 0x00, 0x00, 0x00, 0x01, 0x00, 0x00, 0x00, 0x10, 0x00, 0x00, 0x00,
  0x10, 0x00, 0x00, 0x00, 0x01, 0x00, 0x00, 0x00, 0x00, 0x00, 0x16, 0x00,
  0x20, 0x00, 0x1c, 0x00, 0x1b, 0x00, 0x14, 0x00, 0x10, 0x00, 0x0c, 0x00,
  0x00, 0x00, 0x00, 0x00, 0x08, 0x00, 0x07, 0x00, 0x16, 0x00, 0x00, 0x00,
  0x00, 0x00, 0x00, 0x01, 0x18, 0x00, 0x00, 0x00, 0x28, 0x00, 0x00, 0x00,
  0x48, 0x00, 0x00, 0x00, 0x0c, 0x00, 0x00, 0x00, 0x00, 0x00, 0x00, 0x09,
  0x50, 0x00, 0x00, 0x00, 0x04, 0x00, 0x00, 0x00, 0xff, 0xff, 0xff, 0xff,
  0x7c, 0x00, 0x00, 0x00, 0x81, 0x00, 0x00, 0x00, 0x01, 0x00, 0x00, 0x00,
  0x4c, 0xf8, 0xff, 0xff, 0x08, 0x00, 0x00, 0x00, 0x14, 0x00, 0x00, 0x00,
  0x01, 0x00, 0x00, 0x00, 0x80, 0xff, 0xff, 0xff, 0xff, 0xff, 0xff, 0xff,
  0x00, 0x00, 0x00, 0x00, 0x01, 0x00, 0x00, 0x00, 0x9a, 0xa1, 0xa8, 0x3e,
  0x0c, 0x00, 0x00, 0x00, 0x74, 0x66, 0x6c, 0x2e, 0x71, 0x75, 0x61, 0x6e,
  0x74, 0x69, 0x7a, 0x65, 0x00, 0x00, 0x00, 0x00, 0x04, 0x00, 0x00, 0x00,
  0x01, 0x00, 0x00, 0x00, 0x7c, 0x00, 0x00, 0x00, 0x81, 0x00, 0x00, 0x00,
  0x01, 0x00, 0x00, 0x00, 0x0a, 0xf8, 0xff, 0xff, 0x00, 0x00, 0x00, 0x01,
  0x14, 0x00, 0x00, 0x00, 0x70, 0x00, 0x00, 0x00, 0x0b, 0x00, 0x00, 0x00,
  0x00, 0x00, 0x00, 0x09, 0x7c, 0x00, 0x00, 0x00, 0xb4, 0xf8, 0xff, 0xff,
  0x08, 0x00, 0x00, 0x00, 0x3c, 0x00, 0x00, 0x00, 0x06, 0x00, 0x00, 0x00,
  0x00, 0x00, 0x00, 0x00, 0x00, 0x00, 0x00, 0x00, 0x00, 0x00, 0x00, 0x00,
  0x00, 0x00, 0x00, 0x00, 0x00, 0x00, 0x00, 0x00, 0x00, 0x00, 0x00, 0x00,
  0x00, 0x00, 0x00, 0x00, 0x00, 0x00, 0x00, 0x00, 0x00, 0x00, 0x00, 0x00,
  0x00, 0x00, 0x00, 0x00, 0x00, 0x00, 0x00, 0x00, 0x00, 0x00, 0x00, 0x00,
  0x00, 0x00, 0x00, 0x00, 0x06, 0x00, 0x00, 0x00, 0xf4, 0xc6, 0x89, 0x3b,
  0x99, 0x72, 0x82, 0x3b, 0x3d, 0xcb, 0xaa, 0x3b, 0x42, 0x5c, 0xcc, 0x3b,
  0x3f, 0xbe, 0xc3, 0x3b, 0x8d, 0x62, 0x8a, 0x3b, 0x12, 0x00, 0x00, 0x00,
  0x74, 0x66, 0x6c, 0x2e, 0x70, 0x73, 0x65, 0x75, 0x64, 0x6f, 0x5f, 0x71,
  0x63, 0x6f, 0x6e, 0x73, 0x74, 0x37, 0x00, 0x00, 0x04, 0x00, 0x00, 0x00,
  0x06, 0x00, 0x00, 0x00, 0x03, 0x00, 0x00, 0x00, 0x03, 0x00, 0x00, 0x00,
  0x01, 0x00, 0x00, 0x00, 0xb2, 0xf8, 0xff, 0xff, 0x00, 0x00, 0x00, 0x01,
  0x14, 0x00, 0x00, 0x00, 0x6c, 0x00, 0x00, 0x00, 0x0a, 0x00, 0x00, 0x00,
  0x00, 0x00, 0x00, 0x02, 0x78, 0x00, 0x00, 0x00, 0x5c, 0xf9, 0xff, 0xff,
  0x08, 0x00, 0x00, 0x00, 0x38, 0x00, 0x00, 0x00, 0x06, 0x00, 0x00, 0x00,
  0x00, 0x00, 0x00, 0x00, 0x00, 0x00, 0x00, 0x00, 0x00, 0x00, 0x00, 0x00,
  0x00, 0x00, 0x00, 0x00, 0x00, 0x00, 0x00, 0x00, 0x00, 0x00, 0x00, 0x00,
  0x00, 0x00, 0x00, 0x00, 0x00, 0x00, 0x00, 0x00, 0x00, 0x00, 0x00, 0x00,
  0x00, 0x00, 0x00, 0x00, 0x00, 0x00, 0x00, 0x00, 0x00, 0x00, 0x00, 0x00,
  0x06, 0x00, 0x00, 0x00, 0x12, 0x83, 0xb5, 0x3a, 0x1a, 0xdb, 0xab, 0x3a,
  0x61, 0x02, 0xe1, 0x3a, 0x8c, 0x9d, 0x06, 0x3b, 0x6a, 0xf0, 0x00, 0x3b,
  0x10, 0x50, 0xb6, 0x3a, 0x12, 0x00, 0x00, 0x00, 0x74, 0x66, 0x6c, 0x2e,
  0x70, 0x73, 0x65, 0x75, 0x64, 0x6f, 0x5f, 0x71, 0x63, 0x6f, 0x6e, 0x73,
  0x74, 0x36, 0x00, 0x00, 0x01, 0x00, 0x00, 0x00, 0x06, 0x00, 0x00, 0x00,
  0x4a, 0xf9, 0xff, 0xff, 0x00, 0x00, 0x00, 0x01, 0x14, 0x00, 0x00, 0x00,
  0x70, 0x00, 0x00, 0x00, 0x09, 0x00, 0x00, 0x00, 0x00, 0x00, 0x00, 0x09,
  0x7c, 0x00, 0x00, 0x00, 0xf4, 0xf9, 0xff, 0xff, 0x08, 0x00, 0x00, 0x00,
  0x3c, 0x00, 0x00, 0x00, 0x06, 0x00, 0x00, 0x00, 0x00, 0x00, 0x00, 0x00,
  0x00, 0x00, 0x00, 0x00, 0x00, 0x00, 0x00, 0x00, 0x00, 0x00, 0x00, 0x00,
  0x00, 0x00, 0x00, 0x00, 0x00, 0x00, 0x00, 0x00, 0x00, 0x00, 0x00, 0x00,
  0x00, 0x00, 0x00, 0x00, 0x00, 0x00, 0x00, 0x00, 0x00, 0x00, 0x00, 0x00,
  0x00, 0x00, 0x00, 0x00, 0x00, 0x00, 0x00, 0x00, 0x00, 0x00, 0x00, 0x00,
  0x06, 0x00, 0x00, 0x00, 0xe8, 0x7b, 0xe2, 0x3b, 0x0b, 0x7c, 0xed, 0x3b,
  0x02, 0xe6, 0x54, 0x3c, 0xc6, 0x46, 0xa5, 0x3b, 0x67, 0x3d, 0x6f, 0x3b,
  0xe6, 0x7e, 0x89, 0x3b, 0x12, 0x00, 0x00, 0x00, 0x74, 0x66, 0x6c, 0x2e,
  0x70, 0x73, 0x65, 0x75, 0x64, 0x6f, 0x5f, 0x71, 0x63, 0x6f, 0x6e, 0x73,
  0x74, 0x35, 0x00, 0x00, 0x04, 0x00, 0x00, 0x00, 0x06, 0x00, 0x00, 0x00,
  0x03, 0x00, 0x00, 0x00, 0x03, 0x00, 0x00, 0x00, 0x06, 0x00, 0x00, 0x00,
  0xf2, 0xf9, 0xff, 0xff, 0x00, 0x00, 0x00, 0x01, 0x14, 0x00, 0x00, 0x00,
  0x6c, 0x00, 0x00, 0x00, 0x08, 0x00, 0x00, 0x00, 0x00, 0x00, 0x00, 0x02,
  0x78, 0x00, 0x00, 0x00, 0x9c, 0xfa, 0xff, 0xff, 0x08, 0x00, 0x00, 0x00,
  0x38, 0x00, 0x00, 0x00, 0x06, 0x00, 0x00, 0x00, 0x00, 0x00, 0x00, 0x00,
  0x00, 0x00, 0x00, 0x00, 0x00, 0x00, 0x00, 0x00, 0x00, 0x00, 0x00, 0x00,
  0x00, 0x00, 0x00, 0x00, 0x00, 0x00, 0x00, 0x00, 0x00, 0x00, 0x00, 0x00,
  0x00, 0x00, 0x00, 0x00, 0x00, 0x00, 0x00, 0x00, 0x00, 0x00, 0x00, 0x00,
  0x00, 0x00, 0x00, 0x00, 0x00, 0x00, 0x00, 0x00, 0x06, 0x00, 0x00, 0x00,
  0xbb, 0xc6, 0x1b, 0x3b, 0xad, 0x57, 0x23, 0x3b, 0xa0, 0x6e, 0x92, 0x3b,
  0xec, 0x5a, 0xe3, 0x3a, 0xbf, 0x8c, 0xa4, 0x3a, 0xca, 0x23, 0xbd, 0x3a,
  0x12, 0x00, 0x00, 0x00, 0x74, 0x66, 0x6c, 0x2e, 0x70, 0x73, 0x65, 0x75,
  0x64, 0x6f, 0x5f, 0x71, 0x63, 0x6f, 0x6e, 0x73, 0x74, 0x34, 0x00, 0x00,
  0x01, 0x00, 0x00, 0x00, 0x06, 0x00, 0x00, 0x00, 0x8a, 0xfa, 0xff, 0xff,
  0x00, 0x00, 0x00, 0x01, 0x14, 0x00, 0x00, 0x00, 0x08, 0x02, 0x00, 0x00,
  0x07, 0x00, 0x00, 0x00, 0x00, 0x00, 0x00, 0x09, 0x14, 0x02, 0x00, 0x00,
  0x34, 0xfb, 0xff, 0xff, 0x08, 0x00, 0x00, 0x00, 0x4c, 0x01, 0x00, 0x00,
  0x28, 0x00, 0x00, 0x00, 0x00, 0x00, 0x00, 0x00, 0x00, 0x00, 0x00, 0x00,
  0x00, 0x00, 0x00, 0x00, 0x00, 0x00, 0x00, 0x00, 0x00, 0x00, 0x00, 0x00,
  0x00, 0x00, 0x00, 0x00, 0x00, 0x00, 0x00, 0x00, 0x00, 0x00, 0x00, 0x00,
  0x00, 0x00, 0x00, 0x00, 0x00, 0x00, 0x00, 0x00, 0x00, 0x00, 0x00, 0x00,
  0x00, 0x00, 0x00, 0x00, 0x00, 0x00, 0x00, 0x00, 0x00, 0x00, 0x00, 0x00,
  0x00, 0x00, 0x00, 0x00, 0x00, 0x00, 0x00, 0x00, 0x00, 0x00, 0x00, 0x00,
  0x00, 0x00, 0x00, 0x00, 0x00, 0x00, 0x00, 0x00, 0x00, 0x00, 0x00, 0x00,
  0x00, 0x00, 0x00, 0x00, 0x00, 0x00, 0x00, 0x00, 0x00, 0x00, 0x00, 0x00,
  0x00, 0x00, 0x00, 0x00, 0x00, 0x00, 0x00, 0x00, 0x00, 0x00, 0x00, 0x00,
  0x00, 0x00, 0x00, 0x00, 0x00, 0x00, 0x00, 0x00, 0x00, 0x00, 0x00, 0x00,
  0x00, 0x00, 0x00, 0x00, 0x00, 0x00, 0x00, 0x00, 0x00, 0x00, 0x00, 0x00,
  0x00, 0x00, 0x00, 0x00, 0x00, 0x00, 0x00, 0x00, 0x00, 0x00, 0x00, 0x00,
  0x00, 0x00, 0x00, 0x00, 0x00, 0x00, 0x00, 0x00, 0x00, 0x00, 0x00, 0x00,
  0x00, 0x00, 0x00, 0x00, 0x00, 0x00, 0x00, 0x00, 0x00, 0x00, 0x00, 0x00,
  0x00, 0x00, 0x00, 0x00, 0x00, 0x00, 0x00, 0x00, 0x00, 0x00, 0x00, 0x00,
  0x00, 0x00, 0x00, 0x00, 0x00, 0x00, 0x00, 0x00, 0x00, 0x00, 0x00, 0x00,
  0x00, 0x00, 0x00, 0x00, 0x00, 0x00, 0x00, 0x00, 0x00, 0x00, 0x00, 0x00,
  0x00, 0x00, 0x00, 0x00, 0x00, 0x00, 0x00, 0x00, 0x00, 0x00, 0x00, 0x00,
  0x00, 0x00, 0x00, 0x00, 0x00, 0x00, 0x00, 0x00, 0x00, 0x00, 0x00, 0x00,
  0x00, 0x00, 0x00, 0x00, 0x00, 0x00, 0x00, 0x00, 0x00, 0x00, 0x00, 0x00,
  0x00, 0x00, 0x00, 0x00, 0x00, 0x00, 0x00, 0x00, 0x00, 0x00, 0x00, 0x00,
  0x00, 0x00, 0x00, 0x00, 0x00, 0x00, 0x00, 0x00, 0x00, 0x00, 0x00, 0x00,
  0x00, 0x00, 0x00, 0x00, 0x00, 0x00, 0x00, 0x00, 0x00, 0x00, 0x00, 0x00,
  0x00, 0x00, 0x00, 0x00, 0x00, 0x00, 0x00, 0x00, 0x00, 0x00, 0x00, 0x00,
  0x00, 0x00, 0x00, 0x00, 0x00, 0x00, 0x00, 0x00, 0x00, 0x00, 0x00, 0x00,
  0x00, 0x00, 0x00, 0x00, 0x00, 0x00, 0x00, 0x00, 0x00, 0x00, 0x00, 0x00,
  0x00, 0x00, 0x00, 0x00, 0x00, 0x00, 0x00, 0x00, 0x00, 0x00, 0x00, 0x00,
  0x00, 0x00, 0x00, 0x00, 0x28, 0x00, 0x00, 0x00, 0xf8, 0xbe, 0x85, 0x3b,
  0x14, 0xdc, 0xcd, 0x3b, 0x05, 0x5d, 0x0e, 0x3c, 0x61, 0x32, 0x8b, 0x3b,
  0x60, 0xf6, 0xc8, 0x3b, 0xe9, 0x1c, 0xe7, 0x3b, 0xd0, 0x64, 0xaf, 0x3b,
  0x74, 0x3c, 0xc7, 0x3b, 0x9c, 0x0b, 0xa3, 0x3b, 0xf1, 0x9f, 0xe8, 0x3b,
  0x23, 0xe2, 0x8d, 0x3b, 0x4b, 0xf4, 0x99, 0x3b, 0xa8, 0xc2, 0xd3, 0x3b,
  0x4b, 0x8a, 0x6b, 0x3b, 0xbf, 0xe3, 0xa5, 0x3b, 0x3f, 0xb3, 0xd1, 0x3b,
  0xaf, 0x0e, 0xd6, 0x3b, 0x1c, 0xb1, 0xd2, 0x3b, 0x16, 0x6e, 0xbe, 0x3b,
  0xe6, 0x08, 0xdc, 0x3b, 0xdf, 0x97, 0xd0, 0x3b, 0x7f, 0x7c, 0xd3, 0x3b,
  0x92, 0x9d, 0x94, 0x3b, 0xd0, 0xe8, 0xc0, 0x3b, 0x38, 0xb6, 0xe6, 0x3b,
  0xde, 0xea, 0xc5, 0x3b, 0xe5, 0xdc, 0xb4, 0x3b, 0x8a, 0x8f, 0x86, 0x3b,
  0x3e, 0x7a, 0xd6, 0x3b, 0xa6, 0x70, 0xcb, 0x3b, 0xf6, 0xfd, 0x11, 0x3c,
  0x3b, 0xf7, 0x04, 0x3c, 0xc6, 0x7b, 0xb6, 0x3b, 0x98, 0xfa, 0xd2, 0x3b,
  0x4a, 0x72, 0x02, 0x3c, 0x4d, 0x7a, 0x75, 0x3b, 0x88, 0x8c, 0xdd, 0x3b,
  0x38, 0xa7, 0xb6, 0x3b, 0x1c, 0x8e, 0xf4, 0x3b, 0xaa, 0x24, 0xd3, 0x3b,
  0x12, 0x00, 0x00, 0x00, 0x74, 0x66, 0x6c, 0x2e, 0x70, 0x73, 0x65, 0x75,
  0x64, 0x6f, 0x5f, 0x71, 0x63, 0x6f, 0x6e, 0x73, 0x74, 0x33, 0x00, 0x00,
  0x02, 0x00, 0x00, 0x00, 0x28, 0x00, 0x00, 0x00, 0x96, 0x00, 0x00, 0x00,
  0xc2, 0xfc, 0xff, 0xff, 0x00, 0x00, 0x00, 0x01, 0x14, 0x00, 0x00, 0x00,
  0x04, 0x02, 0x00, 0x00, 0x06, 0x00, 0x00, 0x00, 0x00, 0x00, 0x00, 0x02,
  0x10, 0x02, 0x00, 0x00, 0x6c, 0xfd, 0xff, 0xff, 0x08, 0x00, 0x00, 0x00,
  0x48, 0x01, 0x00, 0x00, 0x28, 0x00, 0x00, 0x00, 0x00, 0x00, 0x00, 0x00,
  0x00, 0x00, 0x00, 0x00, 0x00, 0x00, 0x00, 0x00, 0x00, 0x00, 0x00, 0x00,
  0x00, 0x00, 0x00, 0x00, 0x00, 0x00, 0x00, 0x00, 0x00, 0x00, 0x00, 0x00,
  0x00, 0x00, 0x00, 0x00, 0x00, 0x00, 0x00, 0x00, 0x00, 0x00, 0x00, 0x00,
  0x00, 0x00, 0x00, 0x00, 0x00, 0x00, 0x00, 0x00, 0x00, 0x00, 0x00, 0x00,
  0x00, 0x00, 0x00, 0x00, 0x00, 0x00, 0x00, 0x00, 0x00, 0x00, 0x00, 0x00,
  0x00, 0x00, 0x00, 0x00, 0x00, 0x00, 0x00, 0x00, 0x00, 0x00, 0x00, 0x00,
  0x00, 0x00, 0x00, 0x00, 0x00, 0x00, 0x00, 0x00, 0x00, 0x00, 0x00, 0x00,
  0x00, 0x00, 0x00, 0x00, 0x00, 0x00, 0x00, 0x00, 0x00, 0x00, 0x00, 0x00,
  0x00, 0x00, 0x00, 0x00, 0x00, 0x00, 0x00, 0x00, 0x00, 0x00, 0x00, 0x00,
  0x00, 0x00, 0x00, 0x00, 0x00, 0x00, 0x00, 0x00, 0x00, 0x00, 0x00, 0x00,
  0x00, 0x00, 0x00, 0x00, 0x00, 0x00, 0x00, 0x00, 0x00, 0x00, 0x00, 0x00,
  0x00, 0x00, 0x00, 0x00, 0x00, 0x00, 0x00, 0x00, 0x00, 0x00, 0x00, 0x00,
  0x00, 0x00, 0x00, 0x00, 0x00, 0x00, 0x00, 0x00, 0x00, 0x00, 0x00, 0x00,
  0x00, 0x00, 0x00, 0x00, 0x00, 0x00, 0x00, 0x00, 0x00, 0x00, 0x00, 0x00,
  0x00, 0x00, 0x00, 0x00, 0x00, 0x00, 0x00, 0x00, 0x00, 0x00, 0x00, 0x00,
  0x00, 0x00, 0x00, 0x00, 0x00, 0x00, 0x00, 0x00, 0x00, 0x00, 0x00, 0x00,
  0x00, 0x00, 0x00, 0x00, 0x00, 0x00, 0x00, 0x00, 0x00, 0x00, 0x00, 0x00,
  0x00, 0x00, 0x00, 0x00, 0x00, 0x00, 0x00, 0x00, 0x00, 0x00, 0x00, 0x00,
  0x00, 0x00, 0x00, 0x00, 0x00, 0x00, 0x00, 0x00, 0x00, 0x00, 0x00, 0x00,
  0x00, 0x00, 0x00, 0x00, 0x00, 0x00, 0x00, 0x00, 0x00, 0x00, 0x00, 0x00,
  0x00, 0x00, 0x00, 0x00, 0x00, 0x00, 0x00, 0x00, 0x00, 0x00, 0x00, 0x00,
  0x00, 0x00, 0x00, 0x00, 0x00, 0x00, 0x00, 0x00, 0x00, 0x00, 0x00, 0x00,
  0x00, 0x00, 0x00, 0x00, 0x00, 0x00, 0x00, 0x00, 0x00, 0x00, 0x00, 0x00,
  0x00, 0x00, 0x00, 0x00, 0x00, 0x00, 0x00, 0x00, 0x00, 0x00, 0x00, 0x00,
  0x00, 0x00, 0x00, 0x00, 0x00, 0x00, 0x00, 0x00, 0x00, 0x00, 0x00, 0x00,
  0x00, 0x00, 0x00, 0x00, 0x00, 0x00, 0x00, 0x00, 0x00, 0x00, 0x00, 0x00,
  0x00, 0x00, 0x00, 0x00, 0x28, 0x00, 0x00, 0x00, 0x67, 0x76, 0x3b, 0x3a,
  0x09, 0x45, 0x90, 0x3a, 0x79, 0x8a, 0xc7, 0x3a, 0x41, 0x1a, 0x43, 0x3a,
  0x6c, 0xd6, 0x8c, 0x3a, 0xb1, 0xf7, 0xa1, 0x3a, 0x60, 0xd6, 0x75, 0x3a,
  0xb7, 0xa0, 0x8b, 0x3a, 0x89, 0x87, 0x64, 0x3a, 0xed, 0x06, 0xa3, 0x3a,
  0x3d, 0xde, 0x46, 0x3a, 0x7f, 0xc9, 0x57, 0x3a, 0xac, 0x67, 0x94, 0x3a,
  0xfb, 0x11, 0x25, 0x3a, 0x1d, 0x84, 0x68, 0x3a, 0x0e, 0xf6, 0x92, 0x3a,
  0xc5, 0x03, 0x96, 0x3a, 0xf7, 0xa7, 0x93, 0x3a, 0xd2, 0x74, 0x85, 0x3a,
  0x2b, 0x34, 0x9a, 0x3a, 0x76, 0x2f, 0x92, 0x3a, 0x81, 0x36, 0x94, 0x3a,
  0xdb, 0x4d, 0x50, 0x3a, 0xa5, 0x31, 0x87, 0x3a, 0xb9, 0xaf, 0xa1, 0x3a,
  0x21, 0xb4, 0x8a, 0x3a, 0xc6, 0x80, 0x7d, 0x3a, 0xbe, 0x9a, 0x3c, 0x3a,
  0x26, 0x4f, 0x96, 0x3a, 0xee, 0x92, 0x8e, 0x3a, 0x82, 0xa0, 0xcc, 0x3a,
  0x72, 0x5e, 0xba, 0x3a, 0x48, 0xc6, 0x7f, 0x3a, 0x77, 0xdb, 0x93, 0x3a,
  0x7a, 0xd6, 0xb6, 0x3a, 0xdd, 0x08, 0x2c, 0x3a, 0xd4, 0x43, 0x9b, 0x3a,
  0x97, 0x01, 0x80, 0x3a, 0x56, 0x63, 0xab, 0x3a, 0xf3, 0xf8, 0x93, 0x3a,
  0x12, 0x00, 0x00, 0x00, 0x74, 0x66, 0x6c, 0x2e, 0x70, 0x73, 0x65, 0x75,
  0x64, 0x6f, 0x5f, 0x71, 0x63, 0x6f, 0x6e, 0x73, 0x74, 0x32, 0x00, 0x00,
  0x01, 0x00, 0x00, 0x00, 0x28, 0x00, 0x00, 0x00, 0xf2, 0xfe, 0xff, 0xff,
  0x00, 0x00, 0x00, 0x01, 0x14, 0x00, 0x00, 0x00, 0x34, 0x00, 0x00, 0x00,
  0x05, 0x00, 0x00, 0x00, 0x00, 0x00, 0x00, 0x09, 0x40, 0x00, 0x00, 0x00,
  0x9c, 0xff, 0xff, 0xff, 0x08, 0x00, 0x00, 0x00, 0x14, 0x00, 0x00, 0x00,
  0x01, 0x00, 0x00, 0x00, 0x00, 0x00, 0x00, 0x00, 0x00, 0x00, 0x00, 0x00,
  0x00, 0x00, 0x00, 0x00, 0x01, 0x00, 0x00, 0x00, 0xdd, 0xf0, 0x16, 0x3c,
  0x12, 0x00, 0x00, 0x00, 0x74, 0x66, 0x6c, 0x2e, 0x70, 0x73, 0x65, 0x75,
  0x64, 0x6f, 0x5f, 0x71, 0x63, 0x6f, 0x6e, 0x73, 0x74, 0x31, 0x00, 0x00,
  0x02, 0x00, 0x00, 0x00, 0x01, 0x00, 0x00, 0x00, 0x28, 0x00, 0x00, 0x00,
  0x56, 0xff, 0xff, 0xff, 0x00, 0x00, 0x00, 0x01, 0x20, 0x00, 0x00, 0x00,
  0x40, 0x00, 0x00, 0x00, 0x04, 0x00, 0x00, 0x00, 0x00, 0x00, 0x00, 0x02,
  0x4c, 0x00, 0x00, 0x00, 0x0c, 0x00, 0x0c, 0x00, 0x00, 0x00, 0x00, 0x00,
  0x08, 0x00, 0x04, 0x00, 0x0c, 0x00, 0x00, 0x00, 0x08, 0x00, 0x00, 0x00,
  0x14, 0x00, 0x00, 0x00, 0x01, 0x00, 0x00, 0x00, 0x00, 0x00, 0x00, 0x00,
  0x00, 0x00, 0x00, 0x00, 0x00, 0x00, 0x00, 0x00, 0x01, 0x00, 0x00, 0x00,
  0xf5, 0x0d, 0xdb, 0x3a, 0x11, 0x00, 0x00, 0x00, 0x74, 0x66, 0x6c, 0x2e,
  0x70, 0x73, 0x65, 0x75, 0x64, 0x6f, 0x5f, 0x71, 0x63, 0x6f, 0x6e, 0x73,
  0x74, 0x00, 0x00, 0x00, 0x01, 0x00, 0x00, 0x00, 0x01, 0x00, 0x00, 0x00,
  0xc2, 0xff, 0xff, 0xff, 0x00, 0x00, 0x00, 0x01, 0x14, 0x00, 0x00, 0x00,
  0x14, 0x00, 0x00, 0x00, 0x03, 0x00, 0x00, 0x00, 0x00, 0x00, 0x00, 0x02,
  0x1c, 0x00, 0x00, 0x00, 0x44, 0xff, 0xff, 0xff, 0x0f, 0x00, 0x00, 0x00,
  0x61, 0x72, 0x69, 0x74, 0x68, 0x2e, 0x63, 0x6f, 0x6e, 0x73, 0x74, 0x61,
  0x6e, 0x74, 0x31, 0x00, 0x01, 0x00, 0x00, 0x00, 0x02, 0x00, 0x00, 0x00,
  0x00, 0x00, 0x16, 0x00, 0x1c, 0x00, 0x18, 0x00, 0x17, 0x00, 0x10, 0x00,
  0x0c, 0x00, 0x08, 0x00, 0x00, 0x00, 0x00, 0x00, 0x00, 0x00, 0x07, 0x00,
  0x16, 0x00, 0x00, 0x00, 0x00, 0x00, 0x00, 0x01, 0x14, 0x00, 0x00, 0x00,
  0x14, 0x00, 0x00, 0x00, 0x02, 0x00, 0x00, 0x00, 0x00, 0x00, 0x00, 0x02,
  0x1c, 0x00, 0x00, 0x00, 0x98, 0xff, 0xff, 0xff, 0x0e, 0x00, 0x00, 0x00,
  0x61, 0x72, 0x69, 0x74, 0x68, 0x2e, 0x63, 0x6f, 0x6e, 0x73, 0x74, 0x61,
  0x6e, 0x74, 0x00, 0x00, 0x01, 0x00, 0x00, 0x00, 0x02, 0x00, 0x00, 0x00,
  0x00, 0x00, 0x16, 0x00, 0x1c, 0x00, 0x18, 0x00, 0x00, 0x00, 0x14, 0x00,
  0x10, 0x00, 0x0c, 0x00, 0x00, 0x00, 0x00, 0x00, 0x08, 0x00, 0x07, 0x00,
  0x16, 0x00, 0x00, 0x00, 0x00, 0x00, 0x00, 0x01, 0x14, 0x00, 0x00, 0x00,
  0x28, 0x00, 0x00, 0x00, 0x28, 0x00, 0x00, 0x00, 0x01, 0x00, 0x00, 0x00,
  0x44, 0x00, 0x00, 0x00, 0x04, 0x00, 0x00, 0x00, 0xff, 0xff, 0xff, 0xff,
  0x7c, 0x00, 0x00, 0x00, 0x81, 0x00, 0x00, 0x00, 0x01, 0x00, 0x00, 0x00,
  0x04, 0x00, 0x04, 0x00, 0x04, 0x00, 0x00, 0x00, 0x1e, 0x00, 0x00, 0x00,
  0x73, 0x65, 0x72, 0x76, 0x69, 0x6e, 0x67, 0x5f, 0x64, 0x65, 0x66, 0x61,
  0x75, 0x6c, 0x74, 0x5f, 0x6b, 0x65, 0x72, 0x61, 0x73, 0x5f, 0x74, 0x65,
  0x6e, 0x73, 0x6f, 0x72, 0x3a, 0x30, 0x00, 0x00, 0x04, 0x00, 0x00, 0x00,
  0x01, 0x00, 0x00, 0x00, 0x7c, 0x00, 0x00, 0x00, 0x81, 0x00, 0x00, 0x00,
  0x01, 0x00, 0x00, 0x00, 0x08, 0x00, 0x00, 0x00, 0xa4, 0x00, 0x00, 0x00,
  0x84, 0x00, 0x00, 0x00, 0x64, 0x00, 0x00, 0x00, 0x50, 0x00, 0x00, 0x00,
  0x40, 0x00, 0x00, 0x00, 0x2c, 0x00, 0x00, 0x00, 0x18, 0x00, 0x00, 0x00,
  0x04, 0x00, 0x00, 0x00, 0xa4, 0xff, 0xff, 0xff, 0x06, 0x00, 0x00, 0x00,
  0x02, 0x00, 0x00, 0x00, 0x00, 0x00, 0x00, 0x06, 0xb4, 0xff, 0xff, 0xff,
  0x0e, 0x00, 0x00, 0x00, 0x02, 0x00, 0x00, 0x00, 0x00, 0x00, 0x00, 0x0e,
  0xc4, 0xff, 0xff, 0xff, 0x09, 0x00, 0x00, 0x00, 0x04, 0x00, 0x00, 0x00,
  0x00, 0x00, 0x00, 0x09, 0xb8, 0xff, 0xff, 0xff, 0x16, 0x00, 0x00, 0x00,
  0x00, 0x00, 0x00, 0x16, 0xe0, 0xff, 0xff, 0xff, 0x11, 0x00, 0x00, 0x00,
  0x02, 0x00, 0x00, 0x00, 0x00, 0x00, 0x00, 0x11, 0xf0, 0xff, 0xff, 0xff,
  0x03, 0x00, 0x00, 0x00, 0x03, 0x00, 0x00, 0x00, 0x00, 0x00, 0x00, 0x03,
  0x0c, 0x00, 0x10, 0x00, 0x0f, 0x00, 0x00, 0x00, 0x08, 0x00, 0x04, 0x00,
  0x0c, 0x00, 0x00, 0x00, 0x17, 0x00, 0x00, 0x00, 0x03, 0x00, 0x00, 0x00,
  0x00, 0x00, 0x00, 0x17, 0x0c, 0x00, 0x0c, 0x00, 0x0b, 0x00, 0x00, 0x00,
  0x00, 0x00, 0x04, 0x00, 0x0c, 0x00, 0x00, 0x00, 0x72, 0x00, 0x00, 0x00,
  0x00, 0x00, 0x00, 0x72
};
unsigned int converted_model_tflite_len = 12184;
