unsigned char converted_model_tflite[] = {
  0x1c, 0x00, 0x00, 0x00, 0x54, 0x46, 0x4c, 0x33, 0x14, 0x00, 0x20, 0x00,
  0x1c, 0x00, 0x18, 0x00, 0x14, 0x00, 0x10, 0x00, 0x0c, 0x00, 0x00, 0x00,
  0x08, 0x00, 0x04, 0x00, 0x14, 0x00, 0x00, 0x00, 0x1c, 0x00, 0x00, 0x00,
  0x8c, 0x00, 0x00, 0x00, 0x0c, 0x01, 0x00, 0x00, 0xbc, 0x1c, 0x00, 0x00,
  0xcc, 0x1c, 0x00, 0x00, 0xe0, 0x2e, 0x00, 0x00, 0x03, 0x00, 0x00, 0x00,
  0x01, 0x00, 0x00, 0x00, 0x04, 0x00, 0x00, 0x00, 0x2a, 0xe2, 0xff, 0xff,
  0x0c, 0x00, 0x00, 0x00, 0x1c, 0x00, 0x00, 0x00, 0x3c, 0x00, 0x00, 0x00,
  0x0f, 0x00, 0x00, 0x00, 0x73, 0x65, 0x72, 0x76, 0x69, 0x6e, 0x67, 0x5f,
  0x64, 0x65, 0x66, 0x61, 0x75, 0x6c, 0x74, 0x00, 0x01, 0x00, 0x00, 0x00,
  0x04, 0x00, 0x00, 0x00, 0x68, 0xff, 0xff, 0xff, 0x14, 0x00, 0x00, 0x00,
  0x04, 0x00, 0x00, 0x00, 0x08, 0x00, 0x00, 0x00, 0x6f, 0x75, 0x74, 0x70,
  0x75, 0x74, 0x5f, 0x30, 0x00, 0x00, 0x00, 0x00, 0x01, 0x00, 0x00, 0x00,
  0x04, 0x00, 0x00, 0x00, 0xce, 0xe3, 0xff, 0xff, 0x04, 0x00, 0x00, 0x00,
  0x0f, 0x00, 0x00, 0x00, 0x6b, 0x65, 0x72, 0x61, 0x73, 0x5f, 0x74, 0x65,
  0x6e, 0x73, 0x6f, 0x72, 0x5f, 0x38, 0x35, 0x00, 0x03, 0x00, 0x00, 0x00,
  0x5c, 0x00, 0x00, 0x00, 0x2c, 0x00, 0x00, 0x00, 0x04, 0x00, 0x00, 0x00,
  0xb8, 0xff, 0xff, 0xff, 0x18, 0x00, 0x00, 0x00, 0x04, 0x00, 0x00, 0x00,
  0x13, 0x00, 0x00, 0x00, 0x43, 0x4f, 0x4e, 0x56, 0x45, 0x52, 0x53, 0x49,
  0x4f, 0x4e, 0x5f, 0x4d, 0x45, 0x54, 0x41, 0x44, 0x41, 0x54, 0x41, 0x00,
  0xdc, 0xff, 0xff, 0xff, 0x17, 0x00, 0x00, 0x00, 0x04, 0x00, 0x00, 0x00,
  0x13, 0x00, 0x00, 0x00, 0x6d, 0x69, 0x6e, 0x5f, 0x72, 0x75, 0x6e, 0x74,
  0x69, 0x6d, 0x65, 0x5f, 0x76, 0x65, 0x72, 0x73, 0x69, 0x6f, 0x6e, 0x00,
  0x08, 0x00, 0x0c, 0x00, 0x08, 0x00, 0x04, 0x00, 0x08, 0x00, 0x00, 0x00,
  0x16, 0x00, 0x00, 0x00, 0x04, 0x00, 0x00, 0x00, 0x13, 0x00, 0x00, 0x00,
  0x6d, 0x69, 0x6e, 0x5f, 0x72, 0x75, 0x6e, 0x74, 0x69, 0x6d, 0x65, 0x5f,
  0x76, 0x65, 0x72, 0x73, 0x69, 0x6f, 0x6e, 0x00, 0x19, 0x00, 0x00, 0x00,
  0xac, 0x1b, 0x00, 0x00, 0xa4, 0x1b, 0x00, 0x00, 0x8c, 0x1b, 0x00, 0x00,
  0x6c, 0x1b, 0x00, 0x00, 0x58, 0x1b, 0x00, 0x00, 0x20, 0x1b, 0x00, 0x00,
  0x70, 0x1a, 0x00, 0x00, 0xf0, 0x02, 0x00, 0x00, 0xc8, 0x02, 0x00, 0x00,
  0x74, 0x01, 0x00, 0x00, 0x4c, 0x01, 0x00, 0x00, 0x04, 0x01, 0x00, 0x00,
  0xfc, 0x00, 0x00, 0x00, 0xf4, 0x00, 0x00, 0x00, 0xec, 0x00, 0x00, 0x00,
  0xe4, 0x00, 0x00, 0x00, 0xdc, 0x00, 0x00, 0x00, 0xd4, 0x00, 0x00, 0x00,
  0xcc, 0x00, 0x00, 0x00, 0xc4, 0x00, 0x00, 0x00, 0xbc, 0x00, 0x00, 0x00,
  0xb4, 0x00, 0x00, 0x00, 0x94, 0x00, 0x00, 0x00, 0x74, 0x00, 0x00, 0x00,
  0x04, 0x00, 0x00, 0x00, 0xd6, 0xe4, 0xff, 0xff, 0x04, 0x00, 0x00, 0x00,
  0x60, 0x00, 0x00, 0x00, 0x0c, 0x00, 0x00, 0x00, 0x08, 0x00, 0x0e, 0x00,
  0x08, 0x00, 0x04, 0x00, 0x08, 0x00, 0x00, 0x00, 0x10, 0x00, 0x00, 0x00,
  0x28, 0x00, 0x00, 0x00, 0x00, 0x00, 0x06, 0x00, 0x08, 0x00, 0x04, 0x00,
  0x06, 0x00, 0x00, 0x00, 0x04, 0x00, 0x00, 0x00, 0x01, 0x00, 0x00, 0x00,
  0xeb, 0x03, 0x00, 0x00, 0x0c, 0x00, 0x18, 0x00, 0x14, 0x00, 0x10, 0x00,
  0x0c, 0x00, 0x04, 0x00, 0x0c, 0x00, 0x00, 0x00, 0x81, 0xd3, 0x66, 0x8a,
  0x9b, 0xf1, 0xdb, 0x10, 0x01, 0x00, 0x00, 0x00, 0x02, 0x00, 0x00, 0x00,
  0x04, 0x00, 0x00, 0x00, 0x06, 0x00, 0x00, 0x00, 0x32, 0x2e, 0x31, 0x37,
  0x2e, 0x30, 0x00, 0x00, 0x42, 0xe5, 0xff, 0xff, 0x04, 0x00, 0x00, 0x00,
  0x10, 0x00, 0x00, 0x00, 0x00, 0x00, 0x00, 0x00, 0x00, 0x00, 0x00, 0x00,
  0x00, 0x00, 0x00, 0x00, 0x00, 0x00, 0x00, 0x00, 0x5e, 0xe5, 0xff, 0xff,
  0x04, 0x00, 0x00, 0x00, 0x10, 0x00, 0x00, 0x00, 0x32, 0x2e, 0x32, 0x2e,
  0x30, 0x00, 0x00, 0x00, 0x00, 0x00, 0x00, 0x00, 0x00, 0x00, 0x00, 0x00,
  0x70, 0xd3, 0xff, 0xff, 0x74, 0xd3, 0xff, 0xff, 0x78, 0xd3, 0xff, 0xff,
  0x7c, 0xd3, 0xff, 0xff, 0x80, 0xd3, 0xff, 0xff, 0x84, 0xd3, 0xff, 0xff,
  0x88, 0xd3, 0xff, 0xff, 0x8c, 0xd3, 0xff, 0xff, 0x90, 0xd3, 0xff, 0xff,
  0x94, 0xd3, 0xff, 0xff, 0xa2, 0xe5, 0xff, 0xff, 0x04, 0x00, 0x00, 0x00,
  0x36, 0x00, 0x00, 0x00, 0x54, 0x39, 0x6c, 0x15, 0x56, 0x7f, 0xa4, 0xfa,
  0xf4, 0x16, 0x2b, 0x9f, 0xf9, 0xdc, 0x81, 0xbd, 0xfa, 0x10, 0xe1, 0xc5,
  0xf4, 0x2c, 0x7f, 0x05, 0x52, 0x5b, 0xfd, 0x25, 0x0d, 0x95, 0x16, 0xe2,
  0x8b, 0xff, 0x81, 0xa3, 0xdd, 0xd9, 0xd2, 0x81, 0xd2, 0x08, 0x02, 0x42,
  0x3c, 0xf9, 0x20, 0x17, 0x13, 0x0e, 0x1f, 0xe7, 0x81, 0xf9, 0x00, 0x00,
  0xe6, 0xe5, 0xff, 0xff, 0x04, 0x00, 0x00, 0x00, 0x18, 0x00, 0x00, 0x00,
  0xf8, 0xff, 0xff, 0xff, 0x0d, 0x00, 0x00, 0x00, 0xfe, 0xff, 0xff, 0xff,
  0x0d, 0x00, 0x00, 0x00, 0x0f, 0x00, 0x00, 0x00, 0xf4, 0xff, 0xff, 0xff,
  0x0a, 0xe6, 0xff, 0xff, 0x04, 0x00, 0x00, 0x00, 0x44, 0x01, 0x00, 0x00,
  0x07, 0xae, 0x0c, 0x05, 0xf0, 0x43, 0x12, 0x26, 0x02, 0xcf, 0x08, 0xc0,
  0xcf, 0x12, 0xf5, 0x26, 0x59, 0x29, 0xf8, 0xb1, 0x00, 0xe9, 0xa0, 0x40,
  0x0b, 0x42, 0x0b, 0x12, 0x21, 0xe9, 0xd6, 0x23, 0xec, 0x49, 0x0c, 0x31,
  0xb0, 0xdb, 0x06, 0x2b, 0x8e, 0xda, 0x16, 0x43, 0x02, 0x81, 0xcc, 0x9c,
  0x1d, 0xc3, 0x32, 0xbf, 0x0f, 0x2a, 0x04, 0xc1, 0x1b, 0x81, 0xde, 0x35,
  0xea, 0x4e, 0xdf, 0xfa, 0xe1, 0xc9, 0xd3, 0x1c, 0x14, 0x34, 0x29, 0x1a,
  0xf4, 0x9c, 0x19, 0xaa, 0x01, 0x5d, 0x0f, 0x56, 0x1c, 0xda, 0x0c, 0xa1,
  0x0a, 0x33, 0xfb, 0x2b, 0x19, 0x18, 0xd8, 0x81, 0xf9, 0xc4, 0xf2, 0x5d,
  0x20, 0x41, 0xd6, 0xda, 0x0b, 0xc5, 0x03, 0x2d, 0x15, 0x10, 0x0a, 0x27,
  0xfe, 0xde, 0x17, 0xf8, 0xf7, 0xdc, 0x1a, 0xe0, 0x0d, 0x07, 0xf2, 0xe5,
  0x05, 0xfe, 0x06, 0xef, 0x12, 0xf4, 0xfe, 0x01, 0xfd, 0x01, 0xd6, 0xea,
  0x0f, 0xe5, 0xef, 0x06, 0xd5, 0x0e, 0x01, 0x09, 0xfc, 0x1a, 0xfc, 0xfa,
  0xf1, 0x12, 0x81, 0x11, 0xea, 0xff, 0x02, 0x0a, 0xff, 0x0e, 0xf5, 0xee,
  0x0e, 0x10, 0x02, 0xfc, 0x03, 0xf5, 0xc5, 0xb4, 0x04, 0xf8, 0x68, 0x2f,
  0xde, 0xcd, 0x37, 0x06, 0x7f, 0xee, 0x2b, 0x0f, 0x0b, 0xef, 0x0c, 0x04,
  0xe8, 0x1e, 0x0a, 0xfa, 0x36, 0xcd, 0xd9, 0xd9, 0xf5, 0xe1, 0x3f, 0x12,
  0xf6, 0xd3, 0xef, 0xb0, 0x16, 0xd4, 0xe2, 0x14, 0xfa, 0x32, 0xe7, 0xcf,
  0x2b, 0xd5, 0xfa, 0x16, 0xbb, 0xe7, 0x3a, 0x16, 0x2d, 0x19, 0xb0, 0xd1,
  0x1b, 0x02, 0xf6, 0x1c, 0xbb, 0xfb, 0x06, 0x04, 0x00, 0x03, 0x05, 0x06,
  0xee, 0x0e, 0xf0, 0x0e, 0x00, 0xec, 0x01, 0x09, 0x81, 0xf1, 0x32, 0xfc,
  0xce, 0x16, 0xf4, 0x19, 0x23, 0x0d, 0x22, 0x1d, 0x11, 0x04, 0x0f, 0x1e,
  0xfe, 0xe3, 0xdd, 0x9e, 0x37, 0xe4, 0x1a, 0xe5, 0x08, 0xd1, 0x42, 0xf2,
  0x26, 0xd9, 0x2e, 0xec, 0x24, 0xfa, 0x20, 0xf5, 0x15, 0xc1, 0x81, 0x8c,
  0x13, 0xe4, 0xee, 0x10, 0xb8, 0xe9, 0x0f, 0x22, 0x18, 0x20, 0xec, 0xec,
  0x40, 0x05, 0x02, 0xf0, 0xe0, 0x23, 0xd5, 0x3b, 0x01, 0x75, 0xe8, 0xd9,
  0xf9, 0x39, 0xe2, 0x2d, 0x27, 0x27, 0x06, 0xe1, 0x08, 0xf2, 0xe3, 0x0b,
  0xf8, 0x3a, 0x0f, 0x28, 0xe8, 0xec, 0x13, 0x17, 0xf9, 0xf5, 0x34, 0x38,
  0x5a, 0xe7, 0xff, 0xff, 0x04, 0x00, 0x00, 0x00, 0x18, 0x00, 0x00, 0x00,
  0x47, 0x00, 0x00, 0x00, 0x01, 0x00, 0x00, 0x00, 0x21, 0x00, 0x00, 0x00,
  0xfb, 0xff, 0xff, 0xff, 0x11, 0x00, 0x00, 0x00, 0xcf, 0xff, 0xff, 0xff,
  0x7e, 0xe7, 0xff, 0xff, 0x04, 0x00, 0x00, 0x00, 0x70, 0x17, 0x00, 0x00,
  0x08, 0xf4, 0xdb, 0xee, 0xe5, 0xfb, 0xda, 0xca, 0x0a, 0xe4, 0x0c, 0x21,
  0xfd, 0x03, 0xb9, 0x0e, 0xf0, 0xd2, 0x10, 0x19, 0xc9, 0xc9, 0x09, 0xf3,
  0x14, 0xf8, 0x04, 0xe2, 0x21, 0xf3, 0xfe, 0x02, 0xd9, 0xee, 0xe6, 0xff,
  0xe5, 0xf3, 0x06, 0xe3, 0xf8, 0x18, 0x16, 0x04, 0xbf, 0x0a, 0xdb, 0x0a,
  0x1a, 0x07, 0xb7, 0xfc, 0x0c, 0xf6, 0x09, 0xf0, 0xb7, 0x13, 0x11, 0x03,
  0x04, 0xfb, 0xe1, 0xe6, 0xc3, 0x00, 0xf8, 0xea, 0xf4, 0xe8, 0x02, 0x0a,
  0x22, 0xfa, 0xf9, 0xe7, 0xe8, 0xf3, 0x1c, 0xd9, 0x09, 0xfd, 0xe7, 0x08,
  0x13, 0xfd, 0xf7, 0xed, 0xf7, 0x0b, 0x0d, 0x01, 0xf8, 0x81, 0xba, 0x00,
  0xfa, 0xde, 0x01, 0xe9, 0xe4, 0xea, 0x10, 0x00, 0x1c, 0xec, 0xd2, 0xf4,
  0x1b, 0xf5, 0x14, 0x15, 0xf6, 0xe3, 0x29, 0xeb, 0x26, 0x2c, 0xf7, 0xe5,
  0x06, 0x02, 0xfa, 0xd9, 0x04, 0xf4, 0x29, 0xe2, 0x0d, 0xe4, 0xee, 0xfe,
  0xfa, 0xe2, 0x16, 0x17, 0x19, 0xee, 0x0d, 0xdb, 0x1b, 0xf5, 0x16, 0xe0,
  0x20, 0x08, 0x21, 0xca, 0x24, 0xe7, 0xd7, 0xb4, 0xba, 0xac, 0x16, 0xdb,
  0xfc, 0xad, 0xd9, 0x00, 0xca, 0x2b, 0x89, 0x26, 0xdf, 0xf9, 0x11, 0x3b,
  0x97, 0x0c, 0xeb, 0x2a, 0x81, 0xc6, 0xbf, 0xad, 0x0e, 0xdf, 0x10, 0x1b,
  0xaa, 0xd3, 0x14, 0xac, 0xfa, 0xc4, 0x9b, 0xf9, 0xdf, 0x12, 0xfc, 0x13,
  0x21, 0xbe, 0x10, 0xc8, 0xf0, 0x00, 0x2b, 0x19, 0xf0, 0xe9, 0xef, 0xf0,
  0xa8, 0x23, 0xf1, 0x01, 0xb4, 0xbe, 0x91, 0xcc, 0x2a, 0xf0, 0xf3, 0xd1,
  0x20, 0xe7, 0x36, 0x24, 0xaa, 0x0f, 0xba, 0xbe, 0xc7, 0x0a, 0x0c, 0xc2,
  0x1b, 0xdc, 0x91, 0x98, 0xff, 0xcf, 0xf7, 0xbf, 0xdb, 0xda, 0x25, 0x14,
  0xab, 0xa9, 0xb2, 0xb8, 0xaf, 0xa9, 0xdc, 0xff, 0xc9, 0x9d, 0x05, 0xc2,
  0xf7, 0xf7, 0xe9, 0x13, 0x1e, 0xa3, 0x91, 0xfb, 0xf2, 0x2c, 0x02, 0x00,
  0xce, 0x19, 0xcc, 0x30, 0xa6, 0x2a, 0x13, 0xc5, 0xc1, 0xe1, 0x08, 0xf9,
  0xa7, 0xf9, 0xaf, 0x0d, 0x0d, 0xe3, 0x0d, 0xbb, 0xb9, 0x1a, 0x04, 0x15,
  0x08, 0xd9, 0xb3, 0xa6, 0xdf, 0xde, 0x20, 0xc1, 0xbb, 0x24, 0x89, 0x26,
  0xd9, 0xd9, 0x22, 0xf8, 0x0b, 0xe3, 0xda, 0x07, 0xcf, 0xf9, 0x03, 0xc3,
  0xe3, 0xe9, 0xe2, 0x0e, 0xfc, 0xaf, 0x03, 0x1c, 0xb0, 0x59, 0x13, 0x35,
  0xf7, 0x33, 0x8a, 0x67, 0x53, 0xd2, 0xe8, 0xe5, 0x29, 0x16, 0xf0, 0x04,
  0xb1, 0xf7, 0x25, 0xf4, 0x0c, 0xf4, 0xf8, 0x01, 0x0e, 0x33, 0xfd, 0xc9,
  0x17, 0x19, 0xfd, 0x27, 0xf5, 0xdc, 0x1a, 0x53, 0x7f, 0x53, 0xda, 0xcd,
  0xdd, 0x06, 0xcb, 0x0d, 0x44, 0x05, 0xec, 0x01, 0x15, 0xfa, 0xe8, 0xe9,
  0xfd, 0x0e, 0x37, 0xf8, 0x34, 0x0a, 0x13, 0xdb, 0x60, 0xf8, 0x28, 0xdc,
  0x15, 0x02, 0x50, 0xd4, 0xf7, 0xff, 0x04, 0xf7, 0x17, 0xd8, 0x13, 0x03,
  0x18, 0x15, 0xfd, 0x24, 0xd4, 0x0c, 0x13, 0x33, 0x3f, 0x0e, 0x1b, 0x0d,
  0xf6, 0xd5, 0x1f, 0xf0, 0x40, 0x06, 0xfd, 0x01, 0x23, 0xd7, 0x51, 0x0c,
  0xf3, 0xd3, 0x08, 0xcb, 0x04, 0x09, 0x0f, 0xc8, 0x22, 0xd5, 0xf5, 0x07,
  0x30, 0xf2, 0x0d, 0xd1, 0x3d, 0x0d, 0x08, 0xd0, 0x1c, 0x49, 0x4b, 0x0d,
  0x14, 0x45, 0x00, 0x45, 0x0c, 0x1e, 0xff, 0x15, 0x38, 0xa9, 0x0d, 0xf6,
  0xf8, 0xa3, 0x2a, 0xc7, 0x19, 0xb3, 0xe9, 0x8c, 0xf0, 0xb2, 0x00, 0xac,
  0x05, 0xd3, 0xe7, 0xa0, 0x09, 0x24, 0x0b, 0x0a, 0xe6, 0xa6, 0x26, 0x12,
  0x16, 0xe2, 0xd6, 0x01, 0x21, 0x0d, 0x25, 0x07, 0xf9, 0xfa, 0x0b, 0xfd,
  0xce, 0xf4, 0x90, 0x10, 0x0f, 0xfa, 0x12, 0xb1, 0x81, 0x12, 0x0a, 0xd5,
  0x09, 0xea, 0xdd, 0x3f, 0x2c, 0xbb, 0xf3, 0x26, 0xdd, 0x07, 0xd7, 0xf9,
  0x1f, 0x0e, 0xf8, 0xed, 0xec, 0xeb, 0x22, 0x11, 0x2c, 0xf0, 0x0c, 0xf8,
  0x1c, 0xe8, 0x1c, 0xea, 0x10, 0x1f, 0xfa, 0xdc, 0xed, 0xfb, 0x11, 0xb6,
  0x17, 0xfa, 0xd9, 0xfd, 0x93, 0x07, 0xfa, 0xe1, 0xe1, 0xe5, 0xff, 0x0a,
  0x0a, 0x1b, 0x8a, 0xf8, 0x1b, 0x25, 0x00, 0xea, 0xa5, 0x12, 0x02, 0xf7,
  0xfa, 0xec, 0xef, 0x20, 0xe6, 0xbd, 0x28, 0x06, 0xb5, 0xda, 0xc8, 0xfc,
  0xd3, 0x0b, 0xae, 0xa7, 0xf2, 0xf7, 0xdd, 0x12, 0xa3, 0xd4, 0xb8, 0xf3,
  0x04, 0xfd, 0xd8, 0xff, 0xaf, 0xc5, 0x18, 0x16, 0xf6, 0x28, 0xdd, 0xe2,
  0xd0, 0xf0, 0x13, 0x08, 0x19, 0xfe, 0xdd, 0xea, 0x0e, 0x1b, 0x0d, 0xde,
  0x03, 0xf2, 0x45, 0x20, 0xff, 0x03, 0x14, 0x14, 0x5a, 0x15, 0x04, 0x03,
  0x02, 0x54, 0x7f, 0x28, 0x0f, 0x03, 0xe1, 0xfe, 0x0e, 0x03, 0xb3, 0x12,
  0x04, 0xff, 0x06, 0x17, 0xe2, 0x06, 0xf1, 0x06, 0x33, 0x1b, 0xee, 0xf7,
  0x00, 0x0b, 0x1a, 0x1e, 0xcd, 0x03, 0x08, 0x21, 0x37, 0xf7, 0xd4, 0x47,
  0xf9, 0x03, 0xf8, 0x05, 0x18, 0x07, 0xf0, 0xfa, 0x0c, 0x15, 0xf2, 0x05,
  0x07, 0x08, 0x2d, 0x03, 0xf8, 0x24, 0xf9, 0xea, 0x26, 0xec, 0xec, 0xf5,
  0x0e, 0xf1, 0x1e, 0xf3, 0xf6, 0x1c, 0x00, 0xfc, 0x01, 0xdc, 0x14, 0x02,
  0x12, 0xe6, 0x07, 0xf1, 0xed, 0x02, 0x30, 0x0d, 0xe1, 0xcd, 0x10, 0xfb,
  0xef, 0xd5, 0xea, 0xd1, 0x1a, 0xea, 0xf4, 0xf9, 0xf8, 0xa0, 0x18, 0x02,
  0x07, 0x05, 0x0c, 0xc7, 0xfb, 0x01, 0xd5, 0xc9, 0xeb, 0xe7, 0x06, 0xf2,
  0xfd, 0xcf, 0xd0, 0xd2, 0x0f, 0xf5, 0xfd, 0xd9, 0xec, 0x19, 0x43, 0xdc,
  0xef, 0x14, 0xdc, 0x23, 0x2e, 0xf5, 0xb2, 0xde, 0xf4, 0x02, 0x10, 0xf3,
  0xd3, 0xe2, 0xa4, 0x28, 0xee, 0xc5, 0x2c, 0x08, 0x1d, 0xf7, 0xd9, 0xfe,
  0x23, 0xdb, 0x15, 0x19, 0xd7, 0x34, 0x1d, 0x22, 0x2b, 0x33, 0xfd, 0x25,
  0xcd, 0xfb, 0xcd, 0xed, 0xf9, 0x04, 0xf2, 0xfc, 0xff, 0x18, 0xe5, 0x14,
  0x0f, 0x18, 0x11, 0x0b, 0xd4, 0x2d, 0x0f, 0xeb, 0xf8, 0xff, 0xeb, 0x0b,
  0x0a, 0x04, 0x17, 0xd3, 0x18, 0x3c, 0x02, 0xd9, 0x0d, 0x0b, 0xfe, 0x0a,
  0x2a, 0xf5, 0x44, 0xe6, 0xe9, 0xf9, 0x4c, 0x01, 0x33, 0xdb, 0x19, 0x4b,
  0x1f, 0xd9, 0x12, 0xe1, 0x35, 0x03, 0xfb, 0xd4, 0x1e, 0xf8, 0x44, 0x12,
  0xd3, 0xe2, 0xfe, 0x1a, 0x05, 0x12, 0x13, 0xf3, 0xe6, 0xee, 0xf5, 0xdf,
  0x08, 0x0e, 0xde, 0x0c, 0x43, 0x06, 0xe1, 0xf5, 0xac, 0xe7, 0x23, 0xdc,
  0xcd, 0x1e, 0xed, 0x01, 0xd6, 0xf7, 0xf3, 0xf3, 0xee, 0xee, 0xfc, 0x10,
  0xfc, 0x04, 0x0a, 0xe8, 0x0b, 0xdf, 0xdc, 0xe8, 0xd1, 0x04, 0x0f, 0xa4,
  0x2e, 0x0e, 0x53, 0x08, 0xfa, 0xdf, 0x12, 0xdd, 0x7f, 0x0e, 0xf0, 0x52,
  0x03, 0x81, 0x12, 0x04, 0x0a, 0xc7, 0x0f, 0xf8, 0x28, 0x0e, 0x0c, 0x9e,
  0x12, 0x06, 0x48, 0x0e, 0x07, 0xd3, 0x06, 0x20, 0x55, 0xdf, 0xf1, 0x14,
  0x10, 0x41, 0x51, 0xe3, 0xf7, 0x30, 0xef, 0xe0, 0x1c, 0x1b, 0x06, 0xdf,
  0x19, 0xa3, 0x1e, 0xdb, 0x09, 0xe0, 0x20, 0xc2, 0x23, 0xd0, 0x0b, 0xf7,
  0x05, 0xd9, 0x15, 0xc8, 0xfe, 0x0b, 0x0c, 0xff, 0x39, 0xc6, 0xf4, 0x23,
  0xf6, 0x03, 0xf5, 0x1d, 0x18, 0x03, 0xde, 0xf7, 0xf6, 0x12, 0xfb, 0xfd,
  0xfd, 0xf4, 0xc2, 0x12, 0x1b, 0xf3, 0x12, 0xfa, 0xe5, 0xcb, 0x14, 0xdc,
  0x18, 0xd9, 0xd7, 0x9d, 0x0f, 0xc0, 0x0e, 0x04, 0xdc, 0x10, 0x11, 0x08,
  0x08, 0xfd, 0xf8, 0xf4, 0xda, 0xff, 0x0b, 0x05, 0xbf, 0xe6, 0x04, 0x10,
  0x01, 0xd3, 0xd8, 0x15, 0x22, 0xcc, 0x06, 0x08, 0xbb, 0x01, 0x1a, 0xdf,
  0xf4, 0x07, 0xfb, 0xfb, 0xe8, 0x11, 0x03, 0xf8, 0xe9, 0x01, 0x04, 0x02,
  0xfe, 0xee, 0xbd, 0xfc, 0xdc, 0x09, 0xfa, 0xed, 0xb2, 0x16, 0x04, 0xe6,
  0x13, 0x28, 0x9a, 0x38, 0xee, 0xb9, 0x27, 0xf7, 0xc6, 0xa8, 0xf6, 0xff,
  0xfd, 0xf5, 0xdb, 0xeb, 0x00, 0x0f, 0xfd, 0xfa, 0xbe, 0xde, 0x0d, 0xe3,
  0x1e, 0x14, 0x92, 0x1b, 0x22, 0xfb, 0x0a, 0xd9, 0x96, 0x24, 0x06, 0xf5,
  0x21, 0xf5, 0xe1, 0xb3, 0xe8, 0xfa, 0x0d, 0x06, 0xc0, 0x09, 0xef, 0xc4,
  0xdf, 0x0d, 0xdc, 0x02, 0xe0, 0xe0, 0x07, 0x1c, 0x08, 0x1c, 0x09, 0xe2,
  0x0e, 0x00, 0x1f, 0x4a, 0xfa, 0xd1, 0xef, 0x1a, 0x19, 0xc6, 0xd4, 0x01,
  0x0c, 0xe7, 0x34, 0xb1, 0xef, 0xfd, 0x1f, 0xdc, 0x45, 0xeb, 0x0d, 0xe2,
  0x29, 0xfb, 0x44, 0xd8, 0xf0, 0x38, 0x0b, 0x0b, 0x2f, 0xe2, 0x1c, 0x19,
  0xf6, 0x07, 0xe6, 0xa1, 0x0b, 0xf2, 0xcd, 0xbb, 0x06, 0xf1, 0x15, 0xdd,
  0xd9, 0xcc, 0x01, 0xc6, 0x17, 0xa4, 0x1a, 0x1c, 0xfe, 0xf3, 0x1a, 0x18,
  0xfd, 0xf6, 0x29, 0xf6, 0x28, 0xe5, 0x06, 0x01, 0xf3, 0x81, 0x04, 0x11,
  0x02, 0xab, 0xed, 0xdf, 0xf5, 0x0a, 0xfe, 0xe3, 0xc6, 0xbd, 0x01, 0xcd,
  0x10, 0xbf, 0xbb, 0xce, 0x1a, 0xe6, 0x23, 0x04, 0xe4, 0xc3, 0x14, 0xfe,
  0xa8, 0xe2, 0x12, 0xfc, 0x0c, 0xfc, 0x33, 0xfd, 0xf8, 0x16, 0x10, 0xe6,
  0x11, 0xfc, 0x01, 0xfe, 0x1d, 0x0d, 0xfb, 0xeb, 0x20, 0xdf, 0xfc, 0xda,
  0x27, 0xb1, 0xec, 0xb0, 0xe1, 0x0e, 0x0a, 0xf6, 0xe7, 0x10, 0xd1, 0x27,
  0xe8, 0x0c, 0xf2, 0x29, 0x02, 0xe3, 0xfe, 0x12, 0x81, 0x14, 0x0f, 0xed,
  0xf8, 0x12, 0xf0, 0x12, 0xf8, 0xf7, 0xf5, 0xf2, 0xc4, 0x07, 0xfc, 0x20,
  0xf3, 0x0c, 0x03, 0x02, 0xdf, 0xf1, 0x02, 0x0e, 0x0e, 0x18, 0xf9, 0xf9,
  0x0b, 0x22, 0xe7, 0x01, 0xdc, 0xf7, 0xf9, 0x12, 0xc1, 0x11, 0xf4, 0x0d,
  0xf2, 0xef, 0xcd, 0x01, 0x13, 0xf3, 0x0d, 0x17, 0xfa, 0xe9, 0xe6, 0xe6,
  0x1b, 0x1a, 0x01, 0xfc, 0xfc, 0x00, 0x04, 0x0a, 0xf9, 0x04, 0xf0, 0xed,
  0xdc, 0x09, 0xcf, 0x05, 0xfc, 0x13, 0xe6, 0x0f, 0xa5, 0xfd, 0xeb, 0x0b,
  0x19, 0xfb, 0x10, 0xfe, 0xd9, 0x0b, 0xf8, 0x09, 0xee, 0xff, 0x08, 0x07,
  0x10, 0xe0, 0x10, 0x16, 0xdc, 0xde, 0x04, 0x15, 0x14, 0x04, 0xe9, 0xf4,
  0x0a, 0xd1, 0x04, 0xe3, 0xe6, 0xfd, 0x0c, 0x1a, 0x0b, 0xda, 0xe6, 0x1c,
  0x2c, 0x25, 0x06, 0xf9, 0x13, 0x0a, 0x2e, 0x37, 0xc7, 0x22, 0xfa, 0xe2,
  0xf3, 0xfd, 0xce, 0x23, 0xef, 0xfc, 0x01, 0x84, 0x81, 0x1b, 0xbe, 0xf7,
  0xf7, 0x1f, 0xf8, 0xe4, 0xfc, 0x12, 0xf4, 0x15, 0xf2, 0x10, 0xfb, 0x0b,
  0xf1, 0xfb, 0xde, 0x1a, 0x23, 0xd9, 0xc3, 0x11, 0xf4, 0x20, 0xe1, 0xed,
  0x07, 0xf0, 0x10, 0xec, 0xf8, 0x00, 0xfe, 0xef, 0x1c, 0xfd, 0x04, 0x00,
  0xcd, 0x1a, 0x12, 0xf7, 0xbf, 0x06, 0xed, 0x45, 0x0d, 0x1d, 0xcc, 0x07,
  0xb4, 0x34, 0xdc, 0x1e, 0xd4, 0x08, 0x0e, 0x09, 0x0f, 0xf7, 0xf4, 0xeb,
  0xff, 0x0c, 0x07, 0x28, 0x15, 0x0f, 0x14, 0xff, 0xe4, 0x1c, 0x08, 0xed,
  0xf0, 0x22, 0xf7, 0x33, 0x1a, 0xec, 0xfe, 0x2f, 0xdf, 0x1a, 0xff, 0x01,
  0xe5, 0x08, 0xa7, 0x13, 0x16, 0x12, 0xf7, 0xff, 0x1f, 0x2d, 0x1e, 0xf6,
  0xe9, 0xf8, 0x00, 0xdd, 0x18, 0x0a, 0xf5, 0x0a, 0xfa, 0xf7, 0xba, 0xe1,
  0x23, 0x20, 0x0b, 0xe7, 0xdd, 0x0b, 0xda, 0xc9, 0xed, 0x07, 0xd5, 0xe4,
  0x1c, 0xf3, 0xe8, 0xd0, 0xcd, 0x0e, 0xbd, 0xec, 0xeb, 0x04, 0xa8, 0x08,
  0x1e, 0x19, 0xba, 0xf9, 0xd1, 0xf8, 0x0a, 0x00, 0xa9, 0xfc, 0x08, 0xd7,
  0x1a, 0xda, 0xb1, 0x0e, 0x1e, 0xc4, 0x0d, 0xfc, 0xe0, 0xba, 0xd2, 0xf5,
  0xfe, 0xd1, 0xf0, 0xc2, 0xf2, 0x0c, 0x04, 0xe4, 0x04, 0xde, 0xe9, 0xfe,
  0x1f, 0x2a, 0x04, 0xf1, 0x09, 0xf3, 0x08, 0xf1, 0x16, 0x1e, 0xf9, 0xe6,
  0x06, 0xde, 0x03, 0xba, 0xe4, 0xeb, 0x01, 0xd6, 0xf3, 0xe5, 0xff, 0xf0,
  0xef, 0xf1, 0x21, 0x0c, 0xd1, 0xcc, 0x0e, 0xe7, 0x3a, 0x30, 0xec, 0x03,
  0x0d, 0x09, 0x47, 0x0a, 0xf3, 0x12, 0xf6, 0x1a, 0x07, 0xc8, 0x0a, 0xf1,
  0x05, 0x01, 0x26, 0xcb, 0x02, 0xda, 0x0e, 0xf9, 0x26, 0xee, 0x18, 0xde,
  0x11, 0xe7, 0x1d, 0xfa, 0x05, 0x00, 0x01, 0x02, 0x2f, 0xff, 0xf9, 0xef,
  0xc3, 0xca, 0x08, 0xd5, 0x04, 0xf3, 0x27, 0xe0, 0x00, 0x96, 0x13, 0xff,
  0xf5, 0xce, 0xff, 0x06, 0x37, 0xf4, 0x0e, 0xb6, 0x06, 0xa5, 0x29, 0x06,
  0x07, 0xc6, 0x0e, 0x81, 0x28, 0xbf, 0x10, 0xe0, 0x59, 0x11, 0xe3, 0xf3,
  0x41, 0x1f, 0x1e, 0xf0, 0x2c, 0xfd, 0x13, 0x1d, 0x63, 0xbe, 0x06, 0x0e,
  0x16, 0xda, 0x19, 0xaa, 0x02, 0x69, 0x19, 0xb1, 0x17, 0xd6, 0x1c, 0xc3,
  0xe3, 0x98, 0xed, 0x1d, 0x55, 0xc5, 0xe7, 0x38, 0xd3, 0xec, 0x1a, 0xc5,
  0x0a, 0xf2, 0x9b, 0xe2, 0x09, 0xf4, 0x0e, 0xd7, 0x9a, 0x01, 0x5e, 0x86,
  0x0b, 0x81, 0x86, 0xc7, 0x59, 0xb3, 0xd2, 0x96, 0xa1, 0x29, 0xf5, 0xaf,
  0x30, 0xee, 0xfc, 0xe1, 0x44, 0x9c, 0x3f, 0xde, 0xad, 0xf4, 0xe0, 0xda,
  0x30, 0xd2, 0xa5, 0xeb, 0x17, 0xcc, 0x08, 0xc4, 0xba, 0x26, 0x46, 0xd4,
  0xb0, 0xcd, 0x2e, 0x19, 0x01, 0xce, 0x0a, 0x30, 0xb9, 0xdc, 0x13, 0x9c,
  0x3d, 0x37, 0xe2, 0x1c, 0x02, 0xea, 0x05, 0x33, 0xc2, 0x6c, 0x41, 0xdb,
  0x1d, 0xe6, 0xef, 0x72, 0x33, 0x1f, 0xf2, 0xdc, 0x0e, 0xfa, 0xef, 0xf2,
  0x02, 0xde, 0xf6, 0xda, 0x5a, 0xc6, 0xfe, 0xe4, 0xe2, 0x12, 0xba, 0xbd,
  0x41, 0x01, 0x42, 0x2a, 0xb5, 0x26, 0x30, 0xd8, 0x47, 0x51, 0xe1, 0x2f,
  0x0f, 0x01, 0x2c, 0x09, 0xe9, 0x01, 0x26, 0x19, 0x0d, 0xf5, 0xe5, 0xfe,
  0xf8, 0xfd, 0x21, 0xe8, 0xf0, 0xfb, 0x0c, 0x29, 0x1d, 0xe7, 0x0b, 0x08,
  0x13, 0x21, 0x06, 0xfe, 0xf8, 0xc7, 0x11, 0xfe, 0x2f, 0x33, 0x58, 0xfb,
  0x2f, 0x2a, 0x18, 0x06, 0x16, 0xe1, 0x28, 0xe9, 0x20, 0x2e, 0x0d, 0x10,
  0x08, 0x0c, 0x03, 0x11, 0x59, 0xe1, 0x3d, 0x09, 0xec, 0x1a, 0x3b, 0x14,
  0x08, 0xc5, 0xe0, 0x10, 0x29, 0xe1, 0x0a, 0x09, 0xfc, 0xe4, 0x24, 0xb9,
  0x08, 0x0f, 0xc1, 0x04, 0x3b, 0xe0, 0x29, 0x0c, 0xb4, 0xe1, 0x34, 0xd8,
  0x02, 0xee, 0xab, 0x3f, 0x1f, 0xeb, 0xe3, 0xf3, 0xf5, 0x0d, 0xf7, 0xea,
  0xc1, 0xfa, 0x24, 0x22, 0xd6, 0xc1, 0x20, 0x1c, 0xfc, 0x0e, 0x02, 0xe1,
  0xff, 0x0f, 0x34, 0x3f, 0xeb, 0xfa, 0x20, 0xf0, 0x7f, 0x3b, 0xea, 0xeb,
  0xfd, 0xfb, 0xf2, 0x05, 0xfa, 0x02, 0xed, 0xe9, 0x0b, 0x0d, 0x01, 0xd1,
  0x0d, 0xdf, 0x02, 0x1e, 0xe7, 0xee, 0xe9, 0x0f, 0x3d, 0xfc, 0xb0, 0x06,
  0x29, 0x14, 0x25, 0xf1, 0xc7, 0x22, 0x23, 0xe0, 0x0e, 0x1b, 0x10, 0xf9,
  0x2c, 0x06, 0x49, 0x0e, 0xee, 0xec, 0x3c, 0x1c, 0x23, 0xf6, 0xff, 0x45,
  0x30, 0xfd, 0xef, 0x0c, 0x43, 0x27, 0x08, 0xf8, 0x81, 0x66, 0x66, 0x84,
  0xe1, 0xb9, 0xb0, 0xfb, 0x12, 0xf9, 0xb6, 0xba, 0x48, 0xf7, 0x08, 0xab,
  0x41, 0xf3, 0x07, 0xfd, 0x25, 0xa3, 0x37, 0x3b, 0xda, 0xea, 0x3c, 0xe7,
  0x20, 0x0f, 0xd7, 0x3d, 0xfb, 0xa7, 0xb4, 0x11, 0x0c, 0xf0, 0x3b, 0xff,
  0xe7, 0xfe, 0xe8, 0xf7, 0xed, 0xf2, 0xf2, 0xc7, 0x16, 0xd1, 0xee, 0xc2,
  0x50, 0x02, 0x0a, 0x07, 0x05, 0xa7, 0xfc, 0x11, 0x1b, 0x1f, 0xb7, 0xec,
  0x33, 0x1d, 0x03, 0x18, 0xf7, 0x11, 0x08, 0x25, 0xfb, 0x16, 0x1f, 0x09,
  0xdf, 0x0e, 0x58, 0x0a, 0xc2, 0x00, 0x06, 0xee, 0x55, 0xda, 0x31, 0xe0,
  0x25, 0x12, 0x57, 0xd8, 0xfc, 0x2c, 0x08, 0xc8, 0xf0, 0x12, 0x0b, 0xed,
  0x18, 0x13, 0x06, 0xd6, 0xe7, 0xfb, 0x27, 0x01, 0x2c, 0xd4, 0x48, 0x25,
  0xfc, 0xd1, 0x09, 0xc7, 0x27, 0x36, 0x37, 0x4d, 0xfd, 0xe3, 0x47, 0x25,
  0xd4, 0xe2, 0xcc, 0x01, 0xeb, 0xfb, 0x0e, 0xe1, 0x1a, 0xf8, 0x09, 0xd1,
  0xe1, 0xf2, 0x2b, 0x02, 0x16, 0xf3, 0x18, 0xd7, 0x40, 0xe7, 0x05, 0x05,
  0x1a, 0xe1, 0xf2, 0xde, 0x28, 0xe3, 0xb0, 0x07, 0x10, 0xfb, 0xe1, 0xfe,
  0xbf, 0x10, 0xf0, 0x08, 0xda, 0xe8, 0xfd, 0x19, 0xc2, 0x17, 0xe8, 0x0b,
  0xff, 0xe7, 0x12, 0xfd, 0xee, 0xea, 0x19, 0xfe, 0xe8, 0x0a, 0x19, 0xeb,
  0x00, 0xff, 0xea, 0xe8, 0x02, 0x15, 0xd6, 0x02, 0xf3, 0xf3, 0xf0, 0x12,
  0xfc, 0x0f, 0xc1, 0xf5, 0xfe, 0x12, 0x09, 0xe3, 0x9c, 0xf5, 0x01, 0x1b,
  0x12, 0x12, 0x81, 0x01, 0x0f, 0xd6, 0x2d, 0xe8, 0xd9, 0xe6, 0xe4, 0xef,
  0xfc, 0xf3, 0xd6, 0xe9, 0xfa, 0x02, 0xfa, 0x11, 0xca, 0xf2, 0xc2, 0xfd,
  0xf2, 0xf4, 0xbc, 0x0b, 0xc9, 0xd6, 0x10, 0xeb, 0xfb, 0x09, 0xe9, 0xfc,
  0x06, 0x09, 0xff, 0xf8, 0x9f, 0xef, 0xf0, 0x01, 0x15, 0xc8, 0xf6, 0xe9,
  0x24, 0x08, 0x0c, 0x12, 0xdb, 0x05, 0xf6, 0x04, 0x1a, 0x05, 0xde, 0x04,
  0x0d, 0x22, 0x0b, 0xf4, 0xe0, 0x04, 0xf7, 0xfa, 0xc6, 0xcb, 0x0a, 0x13,
  0xf4, 0x81, 0xed, 0x1f, 0xf3, 0xd2, 0x0c, 0xdc, 0xc2, 0x2f, 0x1f, 0x89,
  0xfd, 0xe6, 0x09, 0xe4, 0x27, 0x9f, 0x07, 0xdc, 0x16, 0xb5, 0x1e, 0xb5,
  0xdf, 0x11, 0xf4, 0x04, 0xd8, 0xf5, 0xe1, 0xad, 0x1d, 0x0d, 0xce, 0xfa,
  0x19, 0xd9, 0x17, 0x21, 0xe9, 0xdb, 0x13, 0xe0, 0x0b, 0x08, 0x21, 0x0d,
  0x01, 0xeb, 0x35, 0x05, 0x1f, 0xe2, 0xd6, 0x1a, 0xf1, 0xf0, 0x33, 0xef,
  0xde, 0xc6, 0xe8, 0xf0, 0x2c, 0x1a, 0x19, 0xa5, 0xd0, 0xf1, 0x16, 0x99,
  0x2b, 0xe5, 0xda, 0xc0, 0x05, 0x08, 0x13, 0xeb, 0xb9, 0xd9, 0x07, 0xb5,
  0x04, 0x08, 0xd6, 0xbe, 0xf3, 0x00, 0x0d, 0xd2, 0xfa, 0xef, 0xe5, 0xf6,
  0xe4, 0xff, 0xaf, 0xea, 0xf6, 0xee, 0xfc, 0xc7, 0xa4, 0xed, 0x1f, 0xde,
  0xf5, 0xba, 0xfa, 0xef, 0x16, 0xad, 0xe4, 0xf4, 0x01, 0x10, 0xe2, 0x02,
  0x0c, 0x05, 0xfc, 0x08, 0xf6, 0xf0, 0x22, 0xe3, 0x31, 0x1f, 0xe0, 0xf6,
  0x12, 0x04, 0x27, 0x0c, 0x00, 0xfb, 0x24, 0xf6, 0x38, 0xe3, 0xf0, 0xd2,
  0xee, 0x0a, 0x0d, 0xed, 0xf1, 0x04, 0xa5, 0xc7, 0x17, 0x2a, 0xbc, 0xe8,
  0x07, 0x11, 0xe1, 0x1e, 0xd0, 0x15, 0x0a, 0xe1, 0x01, 0xe1, 0x06, 0xe5,
  0x02, 0xe2, 0xd9, 0xdc, 0x0d, 0x84, 0x13, 0x08, 0x11, 0xaa, 0xde, 0x10,
  0x81, 0xcb, 0xed, 0xec, 0xeb, 0x00, 0x0c, 0x15, 0xaf, 0x13, 0xef, 0xd6,
  0xfb, 0xf2, 0xdc, 0x20, 0xf2, 0xed, 0x18, 0xf4, 0xd2, 0x1f, 0xf2, 0xb3,
  0x10, 0x2c, 0xe9, 0xc1, 0xf2, 0xfc, 0xfe, 0xcb, 0xea, 0xf9, 0x27, 0x00,
  0x10, 0xf0, 0xbc, 0xd6, 0xe8, 0xf2, 0xfb, 0xee, 0xed, 0xf9, 0xf4, 0xf1,
  0xfe, 0xe6, 0xd2, 0xe1, 0xf0, 0xb0, 0xec, 0xec, 0xfe, 0xf4, 0xda, 0xda,
  0xed, 0xef, 0x08, 0xf4, 0x28, 0xc1, 0x03, 0x2b, 0x1d, 0x1f, 0xd6, 0xbb,
  0xfc, 0x0f, 0x0e, 0xf3, 0xde, 0xcd, 0x0e, 0x07, 0x11, 0xd6, 0xef, 0xee,
  0xee, 0xee, 0x1d, 0xf5, 0xfc, 0x02, 0x21, 0x0d, 0x17, 0xf6, 0xfd, 0xfe,
  0x28, 0xdf, 0x3f, 0x18, 0x25, 0x0c, 0x1d, 0xda, 0x26, 0xd5, 0x0a, 0x33,
  0x05, 0xfb, 0x16, 0x96, 0x16, 0x0b, 0xfa, 0xd5, 0xe1, 0xea, 0xed, 0xeb,
  0xd4, 0xfb, 0xcc, 0x00, 0x0c, 0xd8, 0x08, 0x0e, 0xaf, 0x03, 0xfd, 0xf1,
  0x11, 0x02, 0x94, 0x33, 0x1a, 0x1b, 0x04, 0x18, 0x81, 0x49, 0x26, 0xa1,
  0xf8, 0x0a, 0xd2, 0x02, 0xf4, 0xf9, 0xc4, 0x06, 0x01, 0x06, 0x09, 0xc5,
  0xfa, 0x04, 0xf8, 0x08, 0xf9, 0xce, 0x39, 0x12, 0x1b, 0x2b, 0x11, 0x11,
  0x0c, 0x25, 0x57, 0x2f, 0xf3, 0xdd, 0x13, 0xef, 0x04, 0x03, 0x16, 0x02,
  0x0d, 0x11, 0xf2, 0xe9, 0xf6, 0xeb, 0x1c, 0xe3, 0x1d, 0xf3, 0xc9, 0x11,
  0x12, 0xf2, 0x49, 0xf5, 0xdc, 0x20, 0x28, 0xdb, 0x4a, 0xf0, 0xe1, 0xf9,
  0xef, 0xf2, 0x08, 0x11, 0xea, 0x06, 0xf6, 0x02, 0x13, 0x11, 0xeb, 0xf9,
  0x01, 0xe8, 0x34, 0xe1, 0xd6, 0x18, 0x08, 0xd6, 0x0a, 0xbb, 0xd9, 0xfa,
  0x0d, 0xc5, 0x01, 0xbb, 0xd7, 0x06, 0xe6, 0x02, 0x0d, 0x12, 0xff, 0x06,
  0x07, 0x19, 0x03, 0x11, 0xfe, 0x11, 0x01, 0xf2, 0x01, 0xc7, 0x08, 0x15,
  0x11, 0xd2, 0x11, 0xc1, 0x06, 0xfd, 0x16, 0xd1, 0x0a, 0x8b, 0x32, 0xfd,
  0xf7, 0x23, 0xcd, 0xc0, 0xe4, 0xfc, 0xcd, 0xca, 0xf9, 0xfc, 0xad, 0x1d,
  0x04, 0x04, 0xb2, 0xd9, 0xca, 0xd8, 0x11, 0x02, 0xee, 0xc9, 0x04, 0xe5,
  0x1d, 0xf6, 0xd6, 0x20, 0x1f, 0x81, 0xfa, 0x07, 0xc8, 0xc5, 0x10, 0xf9,
  0xfa, 0xbb, 0xd9, 0xf4, 0x1a, 0xfa, 0xef, 0x0f, 0xad, 0xfe, 0x1d, 0xf0,
  0x07, 0xf5, 0xef, 0x04, 0x14, 0xea, 0xfd, 0xf6, 0x34, 0xf5, 0x04, 0xd4,
  0x07, 0xf6, 0xf9, 0xdc, 0xc9, 0x03, 0x04, 0x02, 0x06, 0xe0, 0xea, 0xe6,
  0x12, 0x03, 0x18, 0xf7, 0xfb, 0xef, 0x04, 0x0c, 0x13, 0x24, 0x0c, 0x14,
  0xed, 0xf9, 0x11, 0x18, 0xfc, 0xdd, 0xf7, 0x10, 0x07, 0xda, 0x05, 0xf4,
  0x10, 0xe8, 0x06, 0xf8, 0x14, 0xd9, 0x1a, 0xe5, 0x0c, 0x15, 0xfd, 0xdd,
  0x12, 0xe7, 0x16, 0x0f, 0x09, 0xf2, 0x07, 0xeb, 0x2e, 0x0c, 0xfb, 0xcc,
  0xe7, 0xe3, 0xe6, 0xa5, 0x08, 0xf3, 0x1d, 0xae, 0xef, 0xc6, 0x0d, 0x03,
  0xec, 0xe0, 0xd7, 0xda, 0x1d, 0x00, 0x19, 0xe3, 0xe6, 0xd0, 0x31, 0xf2,
  0xfd, 0xc4, 0x09, 0xa8, 0x2d, 0xb6, 0x15, 0x23, 0xeb, 0xc9, 0xd3, 0xd7,
  0xb5, 0xcf, 0x31, 0xf2, 0xc5, 0xf7, 0x1e, 0x01, 0xb5, 0x1f, 0xba, 0x87,
  0x12, 0xf7, 0xef, 0xe5, 0x0a, 0xd8, 0x11, 0x03, 0xe1, 0xe8, 0x06, 0xe4,
  0x02, 0xfa, 0xe7, 0xc1, 0x0c, 0xfb, 0xda, 0xa3, 0x08, 0x9f, 0x19, 0x26,
  0x12, 0xcb, 0xe9, 0xc4, 0x0e, 0xe3, 0x1f, 0xfd, 0xd9, 0xba, 0x16, 0x27,
  0x00, 0xc7, 0x15, 0x00, 0xf6, 0xf1, 0xed, 0xf9, 0xf6, 0xcb, 0xf7, 0xe8,
  0x10, 0xf8, 0xf4, 0x9c, 0x41, 0xd6, 0x0f, 0x08, 0x30, 0xfe, 0x1c, 0x81,
  0x19, 0x28, 0x5a, 0x0a, 0xe4, 0x26, 0xf6, 0xda, 0x64, 0xec, 0xfe, 0x0f,
  0xf3, 0xf7, 0x03, 0xa7, 0x18, 0x10, 0xfb, 0xf6, 0xff, 0xfe, 0x1b, 0x20,
  0x09, 0x20, 0x42, 0xe9, 0x19, 0x39, 0x37, 0xde, 0x40, 0x02, 0x24, 0x29,
  0xf9, 0xe1, 0x37, 0xcf, 0x19, 0xe6, 0x19, 0x08, 0xe8, 0xee, 0x06, 0xfd,
  0x02, 0xe2, 0xe4, 0x00, 0xd3, 0xfa, 0xfe, 0xee, 0xb7, 0xf7, 0xf3, 0x07,
  0x06, 0xe0, 0xeb, 0xf6, 0x0f, 0xfd, 0x13, 0x0a, 0x02, 0xc0, 0x09, 0xbe,
  0x05, 0x0e, 0xf0, 0xff, 0xfb, 0x14, 0x0e, 0x13, 0xf3, 0xd8, 0xfa, 0x0d,
  0xfb, 0x09, 0xc5, 0x04, 0x16, 0x03, 0x06, 0x04, 0x9f, 0x1d, 0x09, 0xed,
  0xee, 0xd7, 0xd2, 0x02, 0x1a, 0x00, 0xff, 0x00, 0xeb, 0x04, 0xc5, 0x01,
  0x2f, 0x1a, 0xf5, 0x05, 0xe6, 0xf8, 0xfe, 0x02, 0xf9, 0x15, 0xeb, 0x1b,
  0x20, 0x0a, 0x05, 0x09, 0xc2, 0x0e, 0x0d, 0xf9, 0xfe, 0xd4, 0xe8, 0xd7,
  0xf0, 0xf9, 0x03, 0xfc, 0x81, 0xea, 0x18, 0x11, 0xff, 0xec, 0xe1, 0x01,
  0xf3, 0x07, 0xfd, 0x16, 0xd7, 0xd7, 0xfa, 0x1b, 0xf5, 0x0a, 0xd4, 0xe6,
  0x11, 0x1a, 0xf0, 0x05, 0xe5, 0xf6, 0xdb, 0xea, 0x01, 0xe9, 0xea, 0x04,
  0x08, 0x0f, 0xfa, 0x00, 0xe1, 0xff, 0xe8, 0xe6, 0x1f, 0xff, 0x09, 0x07,
  0x16, 0x09, 0x24, 0xd4, 0x02, 0x30, 0xec, 0xf8, 0x09, 0x17, 0xdb, 0x12,
  0x07, 0xb1, 0x09, 0x10, 0xf2, 0xe2, 0x21, 0x36, 0x13, 0xf2, 0xf2, 0xce,
  0x08, 0x1c, 0x0a, 0x2f, 0x10, 0xe6, 0x0b, 0x1e, 0xf8, 0xe0, 0x05, 0xfa,
  0xff, 0xe2, 0x02, 0xd0, 0xfb, 0xf9, 0x14, 0x1b, 0xff, 0x13, 0xfc, 0xe0,
  0xcf, 0x1f, 0xd1, 0x75, 0x09, 0xcd, 0xdf, 0x1e, 0xe6, 0x2e, 0xfb, 0xac,
  0xee, 0x01, 0x81, 0x56, 0x1a, 0xff, 0xc6, 0xf6, 0x9d, 0x5c, 0x0e, 0xc2,
  0x1f, 0x00, 0x83, 0x49, 0x01, 0xf3, 0x12, 0x01, 0x18, 0x28, 0xfb, 0xe4,
  0xe3, 0xf5, 0xfa, 0x36, 0xf7, 0xdd, 0x15, 0x25, 0x4f, 0x2c, 0x16, 0xf6,
  0xfc, 0x31, 0x5c, 0x12, 0xe5, 0x15, 0xd4, 0x10, 0xbb, 0x06, 0x11, 0xf8,
  0xdb, 0xef, 0xf8, 0xf8, 0x47, 0x00, 0xec, 0xf4, 0x10, 0xe9, 0x3d, 0xfd,
  0x20, 0x0f, 0x66, 0xf1, 0x11, 0xf6, 0xeb, 0xfe, 0x59, 0xe5, 0x0f, 0x3c,
  0x0a, 0x18, 0xf2, 0x0a, 0xb8, 0x08, 0xd8, 0xec, 0x1c, 0xe2, 0xec, 0xf1,
  0x0f, 0x0c, 0x34, 0xe7, 0xd9, 0xf4, 0xf5, 0xf0, 0x2e, 0xd2, 0xdf, 0xda,
  0x09, 0xef, 0x38, 0xcd, 0x0e, 0xf7, 0x2a, 0xf5, 0x2e, 0x0e, 0x36, 0xed,
  0xfc, 0xee, 0x06, 0xec, 0xee, 0x0d, 0x03, 0xf1, 0x0f, 0x0d, 0x19, 0x06,
  0x12, 0x0f, 0x0b, 0xea, 0x3f, 0x1f, 0xec, 0xfe, 0xf3, 0x09, 0x50, 0xff,
  0xdd, 0x87, 0x07, 0x0c, 0xe9, 0xb4, 0xce, 0xfc, 0x92, 0xda, 0x02, 0x9f,
  0xd3, 0xf4, 0x9f, 0xd2, 0x0c, 0xef, 0x17, 0xc5, 0x8b, 0x02, 0x18, 0xed,
  0x09, 0xa4, 0x9d, 0x32, 0x32, 0x81, 0xd8, 0x03, 0xdb, 0xfc, 0xe6, 0xf1,
  0xdb, 0x11, 0xda, 0xfc, 0x1a, 0xc9, 0xfa, 0xf4, 0xca, 0x0c, 0xf0, 0x93,
  0x06, 0x04, 0xf8, 0xec, 0xf6, 0xd7, 0x3a, 0xdf, 0xfe, 0xe2, 0x00, 0xc0,
  0xfa, 0xdc, 0x1c, 0x03, 0xe4, 0xf2, 0x34, 0xf6, 0x08, 0x1a, 0x2b, 0xe8,
  0x56, 0x1a, 0x1a, 0xf4, 0xda, 0xda, 0x1c, 0xf7, 0xe4, 0xe9, 0x11, 0xe5,
  0x09, 0xd2, 0xef, 0xee, 0x3e, 0xc4, 0xdc, 0xd2, 0x2c, 0xf9, 0xf7, 0x05,
  0xf8, 0x00, 0x0a, 0x16, 0x28, 0xed, 0x23, 0xf8, 0x03, 0x16, 0x11, 0xfc,
  0x17, 0x21, 0xce, 0x0b, 0x3b, 0xd0, 0x0b, 0x07, 0xe7, 0xdf, 0x3a, 0x01,
  0xd2, 0xde, 0x0d, 0xfe, 0x36, 0xee, 0x1f, 0x01, 0x1e, 0xf4, 0x25, 0xbe,
  0xf3, 0xe0, 0xf8, 0xe6, 0x0a, 0x15, 0x25, 0x14, 0x3e, 0x12, 0xec, 0xfb,
  0x3b, 0xf4, 0x32, 0x3c, 0xdf, 0x19, 0x0f, 0x23, 0xf2, 0xc1, 0x0b, 0xfb,
  0x12, 0x04, 0x1a, 0xef, 0xf6, 0xfc, 0xef, 0x13, 0x82, 0x16, 0xf6, 0xd8,
  0xef, 0xe8, 0xa8, 0x1a, 0x1f, 0xdb, 0xf3, 0x81, 0x81, 0xde, 0x06, 0x88,
  0xee, 0xf3, 0xf3, 0xfa, 0x22, 0x17, 0xff, 0x09, 0x04, 0x19, 0xd7, 0x0c,
  0xef, 0xe0, 0xc4, 0xf4, 0xde, 0xe1, 0xd9, 0xdc, 0xed, 0x01, 0xf5, 0x06,
  0xdc, 0xd3, 0xdb, 0xfe, 0xe5, 0xaf, 0x10, 0xfb, 0x21, 0xec, 0xf1, 0x0d,
  0x21, 0xe4, 0x07, 0xe9, 0x12, 0x14, 0x05, 0x1c, 0x01, 0x14, 0xe5, 0xe1,
  0xef, 0x04, 0x0e, 0xf8, 0xfd, 0xff, 0x0b, 0xcc, 0x07, 0xdd, 0x05, 0xe6,
  0xfc, 0x0c, 0xfa, 0xea, 0x18, 0x07, 0xd7, 0xf4, 0x03, 0xde, 0x14, 0x27,
  0xf5, 0x05, 0x24, 0xd7, 0x19, 0xdb, 0x12, 0xff, 0x0f, 0x01, 0x21, 0x10,
  0x06, 0x9c, 0x00, 0xfe, 0x12, 0xec, 0xe3, 0xf6, 0x05, 0x22, 0x25, 0xf0,
  0xf9, 0xfa, 0x02, 0xe9, 0x04, 0x09, 0x07, 0xf5, 0xf4, 0xe2, 0x04, 0xe2,
  0x07, 0x08, 0x08, 0xe2, 0x03, 0xe4, 0xd7, 0x85, 0xfe, 0xc8, 0xf3, 0xcd,
  0x3c, 0xf5, 0x28, 0x04, 0x15, 0xfc, 0x1f, 0xe7, 0x1a, 0xb1, 0x15, 0x00,
  0x0f, 0xeb, 0x05, 0xd0, 0x02, 0x13, 0x0a, 0xea, 0xcf, 0xf5, 0x1e, 0x16,
  0xe4, 0xa9, 0x81, 0x11, 0x47, 0x99, 0x00, 0xe3, 0xe5, 0xfe, 0x2d, 0xe3,
  0xe6, 0xe2, 0xac, 0xd4, 0x23, 0xcd, 0x10, 0xfe, 0xc3, 0xdb, 0x0d, 0xcf,
  0xfe, 0x0b, 0xd1, 0xd7, 0x1c, 0xdb, 0xe2, 0xfc, 0xb8, 0x12, 0x0f, 0xaa,
  0xe9, 0x09, 0xc0, 0x20, 0xef, 0xe4, 0xee, 0x12, 0x99, 0xfe, 0x38, 0xed,
  0xf5, 0xfb, 0xc5, 0x07, 0x02, 0xc9, 0x1d, 0x11, 0xd9, 0x11, 0xe8, 0xef,
  0xee, 0xe8, 0xf3, 0x12, 0xca, 0xf2, 0x12, 0xf9, 0xfd, 0x18, 0x03, 0xf9,
  0xe6, 0x11, 0x0d, 0x05, 0x37, 0xf7, 0x06, 0x16, 0x41, 0x0d, 0xf6, 0xf6,
  0x2b, 0xfb, 0x2c, 0x15, 0xf8, 0xf4, 0x27, 0xd9, 0x46, 0xfd, 0x00, 0x1e,
  0xf0, 0xf6, 0x06, 0x05, 0x16, 0xff, 0x0c, 0x12, 0xfa, 0xfc, 0xf0, 0xeb,
  0x1f, 0x16, 0x01, 0xfb, 0x29, 0x14, 0x15, 0xfe, 0x03, 0xeb, 0x01, 0x1b,
  0x29, 0x04, 0xf5, 0xf7, 0xee, 0x2c, 0x11, 0x0a, 0xde, 0x81, 0x06, 0xfc,
  0x0c, 0x89, 0x07, 0xb3, 0x02, 0xd6, 0x01, 0x91, 0xc4, 0xa8, 0x03, 0xa8,
  0x1c, 0xde, 0xd7, 0xa6, 0x1d, 0x05, 0x14, 0x04, 0xe6, 0xc8, 0x39, 0xed,
  0x00, 0xef, 0xe6, 0x05, 0xf8, 0xf1, 0xe1, 0xd1, 0xf2, 0xe1, 0x14, 0xdd,
  0x04, 0x05, 0xdd, 0x16, 0xe7, 0xf0, 0x18, 0xdb, 0x0c, 0x0e, 0x09, 0xfb,
  0x10, 0x00, 0x28, 0x3d, 0x19, 0xba, 0x0d, 0x0a, 0xef, 0x02, 0x07, 0x06,
  0x04, 0xcd, 0x0f, 0x20, 0xdc, 0xe9, 0x24, 0xf1, 0x25, 0xe2, 0x16, 0xee,
  0x1c, 0xec, 0x02, 0xec, 0x1b, 0x17, 0x0d, 0x06, 0xf8, 0x0c, 0x14, 0xb8,
  0x0e, 0x09, 0xde, 0xe1, 0xf8, 0x08, 0xdb, 0xd8, 0x16, 0xd1, 0x16, 0x27,
  0xf8, 0xe2, 0x9c, 0x9d, 0x18, 0xf3, 0xdc, 0xec, 0x99, 0x03, 0x1c, 0x03,
  0xdf, 0xe1, 0x0b, 0x27, 0xf4, 0xc6, 0x06, 0x06, 0xe1, 0xd6, 0xf6, 0xd8,
  0xe5, 0xfe, 0xd9, 0x02, 0x12, 0xde, 0x06, 0x2a, 0xdf, 0xf2, 0xe2, 0xf4,
  0x18, 0xf0, 0x0c, 0x1c, 0xda, 0xfa, 0x0c, 0x05, 0x35, 0x00, 0xe7, 0xdf,
  0x06, 0x1f, 0x1d, 0xf7, 0x15, 0x07, 0x16, 0xf6, 0x00, 0x26, 0x1a, 0x23,
  0x07, 0x19, 0x19, 0xf5, 0x04, 0x30, 0x0a, 0x13, 0x1a, 0xcc, 0x03, 0x17,
  0x2a, 0x2a, 0x6e, 0xfe, 0x13, 0x1b, 0x1d, 0xe7, 0x0d, 0x20, 0x0e, 0x04,
  0x3c, 0x39, 0xf5, 0x23, 0xfd, 0x12, 0x25, 0x2b, 0x2f, 0x25, 0xc7, 0x20,
  0x0b, 0xf6, 0xe6, 0x46, 0x3c, 0x0b, 0x1a, 0xe7, 0xf2, 0x58, 0x0d, 0x01,
  0xd3, 0xd8, 0xa7, 0xf0, 0x12, 0xf9, 0x22, 0xdd, 0xff, 0xe8, 0x09, 0xe7,
  0x39, 0xe4, 0xfa, 0xec, 0x2a, 0x21, 0x52, 0x06, 0xfa, 0xea, 0x3b, 0x07,
  0xff, 0xf8, 0x0e, 0x0e, 0xdd, 0x13, 0xd1, 0xf7, 0xba, 0xfb, 0xfe, 0x13,
  0xfc, 0xa9, 0x2d, 0xda, 0xce, 0xff, 0x14, 0xc1, 0xf5, 0xe4, 0x28, 0xe4,
  0x28, 0xe2, 0x18, 0xeb, 0xe6, 0xe1, 0x18, 0xc8, 0x7f, 0xf5, 0xb1, 0xd6,
  0x17, 0x41, 0xfd, 0xef, 0x11, 0x39, 0xdf, 0xe4, 0xcb, 0x0d, 0xfa, 0x11,
  0xbc, 0x0b, 0xd5, 0xfa, 0x04, 0xc7, 0x02, 0x0d, 0x1c, 0xe0, 0x01, 0xcb,
  0x14, 0xd3, 0xef, 0xbd, 0x43, 0x2d, 0x16, 0xf5, 0x49, 0x12, 0xf9, 0xe5,
  0xdc, 0x11, 0xe0, 0x53, 0x01, 0xb8, 0x21, 0x1c, 0xd9, 0x3b, 0xfc, 0xbb,
  0x32, 0x0b, 0xb1, 0x3b, 0x36, 0x17, 0xfe, 0xf6, 0xa5, 0x7f, 0x39, 0xad,
  0xe2, 0x06, 0xbb, 0x17, 0x04, 0xf1, 0xe2, 0xee, 0xf6, 0xf1, 0xee, 0xda,
  0x09, 0x06, 0x16, 0x05, 0x02, 0xd1, 0x2c, 0x15, 0x08, 0x09, 0xe4, 0xf0,
  0x16, 0x1e, 0x41, 0x1c, 0xe8, 0xd0, 0x03, 0x18, 0xdf, 0x09, 0x0a, 0x07,
  0x09, 0xf3, 0xf2, 0xe9, 0x28, 0x00, 0xde, 0xf7, 0x23, 0xf9, 0x08, 0xe7,
  0x0f, 0xed, 0x47, 0xf8, 0x0b, 0xfa, 0x1d, 0xde, 0x73, 0xf9, 0x0b, 0x15,
  0x20, 0x0c, 0x18, 0xdb, 0xdb, 0x05, 0x08, 0x08, 0x1b, 0xfd, 0x0e, 0x0f,
  0x06, 0x0b, 0x3c, 0xde, 0xd8, 0x13, 0x00, 0x01, 0x1e, 0xcd, 0xed, 0xee,
  0xfa, 0x0d, 0x21, 0xe4, 0x09, 0x1c, 0x08, 0xf0, 0x16, 0x16, 0x09, 0xeb,
  0x14, 0xfe, 0x17, 0xf8, 0xf9, 0xf3, 0x13, 0xfa, 0x23, 0xe9, 0x40, 0x23,
  0x20, 0xed, 0x11, 0xf2, 0x38, 0x10, 0x25, 0x11, 0xd1, 0x15, 0x31, 0x1a,
  0xfa, 0xf6, 0x40, 0xf3, 0xed, 0xea, 0xdc, 0xe1, 0xee, 0xfa, 0xfa, 0xb9,
  0x17, 0xf9, 0x61, 0x81, 0xe8, 0xd6, 0x36, 0xa6, 0xf3, 0xa4, 0xe8, 0x64,
  0x0c, 0x0d, 0xb2, 0x20, 0x33, 0xc5, 0xcd, 0xfd, 0x44, 0xde, 0xfa, 0xf2,
  0x09, 0x1b, 0xf2, 0x0e, 0x04, 0xff, 0x22, 0x04, 0xeb, 0x09, 0x07, 0x27,
  0x10, 0xce, 0xad, 0xfb, 0x37, 0xf0, 0x0a, 0x0f, 0xa2, 0x14, 0x34, 0xf2,
  0x16, 0xe5, 0x63, 0x04, 0xfa, 0xf0, 0x44, 0x39, 0x08, 0xdd, 0x34, 0xfb,
  0x3d, 0x49, 0xdc, 0xd9, 0x07, 0x1c, 0x29, 0x0f, 0xa9, 0x05, 0xdf, 0xf0,
  0x33, 0x06, 0xcd, 0x00, 0xc9, 0xe1, 0xe3, 0xc5, 0xcf, 0x36, 0x1e, 0xae,
  0x22, 0x18, 0xe6, 0xc7, 0xf5, 0xad, 0x17, 0x34, 0x35, 0x06, 0x17, 0x28,
  0x03, 0x31, 0x38, 0x49, 0xef, 0x07, 0x33, 0xfe, 0x50, 0x1a, 0xc7, 0x1f,
  0xe4, 0xf6, 0xd7, 0xed, 0xd5, 0xf4, 0x1d, 0x28, 0xfc, 0x06, 0xcc, 0xd8,
  0xf9, 0xe3, 0x3a, 0x1e, 0xb6, 0x04, 0x18, 0xc2, 0x56, 0xfc, 0x85, 0x0f,
  0x25, 0xda, 0x59, 0x10, 0xe6, 0x0a, 0xf1, 0xe7, 0xfb, 0xc6, 0xf0, 0xed,
  0x0b, 0xb9, 0x1b, 0x04, 0x25, 0x81, 0x18, 0xdc, 0x1c, 0xf5, 0x0f, 0xbd,
  0x17, 0x10, 0x2c, 0xd5, 0x11, 0xf4, 0x06, 0xf1, 0x16, 0xd2, 0x13, 0xf0,
  0xe6, 0x13, 0x01, 0xc5, 0xff, 0xfd, 0xf9, 0xb2, 0x19, 0xf0, 0xfb, 0xca,
  0x0e, 0xf8, 0x0a, 0x00, 0x16, 0xd8, 0x0d, 0x02, 0x07, 0xe7, 0x0b, 0xfd,
  0x15, 0x02, 0x21, 0xec, 0x0b, 0xf7, 0xff, 0x04, 0xcd, 0xc9, 0x02, 0x06,
  0x04, 0xd3, 0xff, 0xef, 0x17, 0xfd, 0x16, 0x0b, 0xd0, 0xe2, 0x1b, 0xf6,
  0x21, 0xe2, 0xad, 0xf3, 0xff, 0xf4, 0x0f, 0x06, 0xc4, 0xee, 0x10, 0xd9,
  0x00, 0xfe, 0xff, 0xff, 0xb7, 0x02, 0xf2, 0xb5, 0xf9, 0xfc, 0xed, 0xf2,
  0x13, 0x11, 0xc4, 0xd6, 0xfb, 0xd2, 0x03, 0x08, 0xd5, 0xe8, 0xf4, 0xf2,
  0x0f, 0xfd, 0xeb, 0xda, 0x01, 0xcf, 0x14, 0x00, 0xf7, 0xd5, 0xe4, 0x05,
  0xde, 0xd3, 0xeb, 0x01, 0xf4, 0x06, 0xf9, 0xed, 0xdc, 0x0c, 0xec, 0xfc,
  0x07, 0xf9, 0xd7, 0x15, 0xf2, 0xdf, 0x28, 0x26, 0xe7, 0x02, 0xfe, 0x05,
  0xe2, 0xe2, 0x11, 0xe9, 0xdb, 0x12, 0x29, 0x24, 0xbf, 0xe8, 0xff, 0xf2,
  0x07, 0x23, 0x97, 0x18, 0x0c, 0xec, 0xf1, 0x0d, 0xe6, 0x11, 0xd8, 0xcc,
  0xf8, 0xcf, 0xb6, 0xe0, 0xcb, 0xf5, 0x10, 0x10, 0xe3, 0x10, 0x07, 0x06,
  0x02, 0xf0, 0xc4, 0xfc, 0x1a, 0xfd, 0x0a, 0x18, 0xb2, 0x20, 0x04, 0xfa,
  0xe7, 0x19, 0xd5, 0xfa, 0x21, 0xff, 0x0d, 0x01, 0xc3, 0xfa, 0x24, 0xe9,
  0xfc, 0xf6, 0x12, 0x06, 0xb2, 0x0a, 0xe0, 0x19, 0x21, 0xf2, 0x89, 0x07,
  0xfd, 0x09, 0xee, 0x02, 0xd1, 0x02, 0xe1, 0x22, 0xd1, 0xfd, 0xf3, 0x19,
  0x0e, 0x04, 0xe0, 0x02, 0x0f, 0x11, 0x00, 0x10, 0x0c, 0x0b, 0xfd, 0x0b,
  0xe1, 0xcf, 0xf8, 0xfc, 0x02, 0xe2, 0x15, 0x18, 0x01, 0x06, 0xd4, 0xeb,
  0x09, 0x3f, 0x0f, 0x10, 0xee, 0x09, 0x33, 0xf9, 0xdb, 0x29, 0xf3, 0xc1,
  0x10, 0x10, 0xf8, 0xd8, 0x1c, 0x09, 0xe7, 0xce, 0x0b, 0xa1, 0x27, 0xe8,
  0xf8, 0xcf, 0x1c, 0xf3, 0xdb, 0xf9, 0x1e, 0x0b, 0x19, 0xf9, 0xd1, 0x0c,
  0x0c, 0x81, 0x0f, 0xfb, 0xf0, 0xe8, 0xc5, 0x00, 0xdc, 0x02, 0xeb, 0xff,
  0xea, 0x18, 0xf5, 0xf8, 0x0b, 0xea, 0xf9, 0x02, 0x0b, 0x29, 0xfd, 0x0b,
  0xe8, 0xff, 0x29, 0x17, 0xf8, 0xe7, 0x14, 0xfb, 0x1e, 0xd4, 0xfe, 0x08,
  0xe1, 0x00, 0xfc, 0xf8, 0xf1, 0xfb, 0x11, 0x04, 0x18, 0xf4, 0x05, 0x0d,
  0x18, 0xef, 0x16, 0x10, 0xe5, 0x1a, 0x03, 0xfc, 0xfe, 0x04, 0x06, 0x0c,
  0x0e, 0x09, 0xdc, 0x12, 0x1a, 0x02, 0x00, 0xfe, 0xc6, 0x04, 0xf1, 0x07,
  0xed, 0x13, 0xd0, 0x01, 0xf0, 0x13, 0x0f, 0x07, 0xbe, 0x04, 0x0f, 0xfd,
  0xfa, 0xf7, 0xb8, 0xf3, 0x03, 0xfd, 0x08, 0xfc, 0xd3, 0xfc, 0x16, 0xd5,
  0xfe, 0x0a, 0xcd, 0xfe, 0x9d, 0x01, 0x0d, 0x00, 0xf7, 0xe7, 0x01, 0x00,
  0x20, 0xfd, 0xe7, 0xf2, 0xf1, 0xff, 0xf8, 0x01, 0xec, 0x05, 0xd1, 0xfb,
  0x1b, 0x02, 0xd7, 0x0d, 0xe3, 0x06, 0x0a, 0xea, 0x07, 0xf4, 0x81, 0xf3,
  0x04, 0x11, 0x0b, 0xe4, 0x10, 0x01, 0xff, 0x19, 0xfd, 0xff, 0xdf, 0xf8,
  0xf6, 0x15, 0x14, 0xf2, 0xc7, 0xf6, 0x21, 0xec, 0x1a, 0xe6, 0xc7, 0xe9,
  0xba, 0xfe, 0xfb, 0x08, 0xf8, 0x04, 0xe3, 0xde, 0x09, 0x27, 0xe9, 0xcd,
  0x09, 0xea, 0x4a, 0x15, 0x03, 0xda, 0x08, 0x15, 0x4a, 0x09, 0xef, 0x19,
  0x15, 0x3c, 0x7f, 0x28, 0xf5, 0x22, 0xfb, 0x0c, 0x10, 0x07, 0xee, 0x0c,
  0x28, 0x0b, 0xfd, 0x09, 0xf4, 0x07, 0xf5, 0xfa, 0x1d, 0x23, 0x04, 0xda,
  0x10, 0x0f, 0x10, 0x0e, 0xbd, 0xe5, 0x0d, 0x0d, 0x38, 0xe5, 0xc9, 0x65,
  0x06, 0x0c, 0x0c, 0xf4, 0x28, 0x0f, 0x01, 0x11, 0x0e, 0x0c, 0xf0, 0x10,
  0xed, 0xfd, 0x02, 0x01, 0x08, 0x11, 0x04, 0x0e, 0x01, 0xe3, 0x26, 0x09,
  0x07, 0xf7, 0x0a, 0x0e, 0x43, 0x31, 0x18, 0xf5, 0xf7, 0xc9, 0xf9, 0xfe,
  0x18, 0xea, 0xfb, 0xe9, 0xfc, 0xf6, 0x28, 0x09, 0xfd, 0xe8, 0x08, 0xfa,
  0x1d, 0x03, 0xf3, 0x01, 0x1c, 0xfb, 0x08, 0x46, 0xe2, 0xf3, 0x1d, 0x0e,
  0x06, 0xfa, 0x8b, 0xef, 0x04, 0xf4, 0xd5, 0xba, 0xcc, 0xdb, 0x0b, 0xfb,
  0xfc, 0xbe, 0xb1, 0xfd, 0x09, 0xe2, 0x1b, 0x05, 0xd7, 0x32, 0x13, 0xb6,
  0xff, 0x3e, 0xe3, 0x49, 0x25, 0x07, 0xc9, 0xdf, 0xd7, 0xf9, 0x09, 0xec,
  0xfa, 0x0a, 0x98, 0x1c, 0xed, 0xcb, 0xf9, 0x00, 0xb7, 0x02, 0x03, 0xc9,
  0x33, 0x22, 0x9c, 0x2d, 0x0b, 0x23, 0x00, 0x1a, 0x81, 0x44, 0x1b, 0xc5,
  0xa1, 0xd5, 0x24, 0xf3, 0xf1, 0xf7, 0xdb, 0xf7, 0x1b, 0x09, 0xfa, 0xfc,
  0x02, 0x02, 0x18, 0x16, 0xea, 0xd9, 0x24, 0x0a, 0x24, 0x14, 0x0f, 0xf6,
  0x10, 0x2f, 0x5b, 0x0e, 0xec, 0xec, 0xd3, 0x05, 0x0d, 0xfc, 0xe8, 0x07,
  0xf4, 0xfd, 0xf9, 0x02, 0x18, 0x09, 0x0c, 0xeb, 0x29, 0x02, 0xe5, 0xe5,
  0x1f, 0xdf, 0x4b, 0x07, 0xc5, 0xee, 0x20, 0x09, 0x3b, 0x06, 0xcb, 0x07,
  0x18, 0xfe, 0x1c, 0x40, 0x19, 0xff, 0x05, 0x1b, 0x26, 0xeb, 0xd9, 0x0e,
  0x0e, 0x07, 0x14, 0xe9, 0xd3, 0x01, 0xf6, 0xeb, 0x24, 0xc2, 0xe3, 0x00,
  0x17, 0x1b, 0x11, 0xad, 0xf5, 0x07, 0xf7, 0xf8, 0xf7, 0x13, 0x08, 0xff,
  0x09, 0x30, 0xf4, 0xe4, 0xe9, 0xfd, 0x24, 0xef, 0x18, 0xe3, 0x2d, 0x2a,
  0x17, 0xe5, 0x1c, 0xce, 0x43, 0x2a, 0x39, 0x05, 0x0e, 0xd9, 0x20, 0x55,
  0xb6, 0xce, 0x43, 0x16, 0x13, 0xf7, 0xef, 0x05, 0x15, 0xfe, 0x17, 0xc7,
  0xf6, 0xe7, 0x7f, 0x15, 0x19, 0xf2, 0xfe, 0xe9, 0x16, 0xf9, 0xfb, 0x2f,
  0x1d, 0x54, 0x51, 0x4c, 0x1a, 0x07, 0x9d, 0xf4, 0xfe, 0xf1, 0x20, 0x00,
  0x02, 0x0f, 0xf4, 0xe8, 0xf8, 0xec, 0xe4, 0xfa, 0x1e, 0x03, 0x0d, 0x15,
  0x0c, 0xdc, 0xf3, 0xfa, 0xc1, 0xfd, 0x05, 0x12, 0x35, 0xc2, 0x02, 0x29,
  0x09, 0x07, 0x02, 0xeb, 0x17, 0x04, 0x29, 0x10, 0x03, 0x08, 0x28, 0x12,
  0x16, 0x2e, 0x0c, 0x11, 0x0d, 0xcd, 0x25, 0xe1, 0xe1, 0xed, 0x1b, 0x03,
  0x0c, 0xf7, 0xef, 0xf2, 0x35, 0xe2, 0x0f, 0xf1, 0x33, 0x04, 0x18, 0xe5,
  0x11, 0xfb, 0x0b, 0xd9, 0x26, 0xe8, 0x1a, 0x38, 0xe9, 0xc9, 0x2b, 0xe3,
  0xf7, 0x17, 0xab, 0x18, 0x2a, 0x17, 0x07, 0x5a, 0xd7, 0x1d, 0x21, 0x25,
  0x0e, 0xdb, 0xbf, 0xe2, 0x15, 0xaa, 0xdc, 0xfa, 0xf9, 0xea, 0x18, 0x9f,
  0x03, 0xf3, 0xf3, 0x35, 0xfb, 0xbc, 0xf9, 0x06, 0x20, 0x57, 0xcf, 0xe2,
  0x0e, 0x2f, 0x20, 0x62, 0xd3, 0x28, 0x14, 0xda, 0x19, 0x1c, 0x1d, 0x07,
  0x0e, 0xfa, 0x30, 0x3d, 0x28, 0xd9, 0x2e, 0xeb, 0x7f, 0x0f, 0x03, 0xf8,
  0x1c, 0xe3, 0x48, 0xf3, 0x22, 0x1d, 0x2d, 0xd9, 0x06, 0x41, 0x25, 0xad,
  0xd1, 0xcb, 0xdb, 0x0b, 0x2a, 0xfe, 0xf5, 0x06, 0x15, 0xdf, 0x07, 0xd7,
  0x12, 0xf9, 0xf6, 0xe9, 0x05, 0xf8, 0x21, 0xe4, 0xe9, 0x04, 0x03, 0xe0,
  0x0f, 0xef, 0xf0, 0x0b, 0x1c, 0xb4, 0xc8, 0xec, 0x26, 0x04, 0x07, 0x06,
  0x02, 0xee, 0x16, 0x25, 0x00, 0xdf, 0x47, 0xe5, 0xff, 0x23, 0x05, 0xc3,
  0x1c, 0xce, 0xfb, 0xf9, 0x25, 0xce, 0x15, 0xb1, 0x0e, 0x0d, 0x1e, 0xb3,
  0x01, 0xe4, 0xfd, 0xf0, 0xfd, 0x02, 0x0e, 0x04, 0x14, 0xe5, 0x17, 0xf4,
  0x20, 0xf3, 0x27, 0xd4, 0x1d, 0x00, 0xef, 0x0d, 0x09, 0xe4, 0x27, 0xe8,
  0x13, 0xd9, 0x13, 0xdd, 0x0b, 0xd8, 0xe4, 0x0c, 0x30, 0xf8, 0xfe, 0xf7,
  0xdc, 0xd8, 0xd2, 0xf4, 0x3e, 0xbf, 0xf7, 0xd8, 0xde, 0xf9, 0x44, 0xda,
  0x23, 0xf4, 0x1b, 0xff, 0xf0, 0x02, 0x16, 0xd6, 0x23, 0x42, 0x00, 0x1e,
  0x03, 0xfd, 0xfd, 0x0b, 0x10, 0x0a, 0x01, 0xed, 0xfc, 0x10, 0xf0, 0xfd,
  0x1a, 0x02, 0x3e, 0xeb, 0xf4, 0x01, 0x09, 0x12, 0x46, 0xe3, 0xf1, 0x0a,
  0x12, 0x45, 0x7f, 0xf4, 0x15, 0x09, 0xf5, 0x02, 0x0a, 0x03, 0x27, 0x08,
  0x1f, 0x12, 0xfa, 0xec, 0x02, 0x13, 0xf9, 0x0f, 0x1a, 0xe7, 0xf7, 0x09,
  0x00, 0xe9, 0xe4, 0xe6, 0x1b, 0xf2, 0x08, 0x02, 0xdd, 0xf3, 0x38, 0x49,
  0x1c, 0x00, 0x11, 0xf9, 0x0e, 0x06, 0x15, 0xfc, 0x06, 0xee, 0x0e, 0xf6,
  0x03, 0xfb, 0xf1, 0xfc, 0x09, 0x04, 0x1d, 0x0f, 0xcb, 0x0c, 0xfd, 0xfe,
  0x11, 0x1c, 0xdb, 0x2e, 0xfe, 0x1e, 0x14, 0xed, 0xd3, 0xd2, 0x02, 0xe7,
  0x0f, 0xf0, 0xc8, 0xe4, 0x17, 0xe3, 0x20, 0x02, 0xe0, 0xed, 0x06, 0x0d,
  0xfe, 0x12, 0xf3, 0x1b, 0xeb, 0x05, 0x19, 0x26, 0x37, 0x3a, 0xd8, 0xff,
  0xfe, 0x0a, 0x98, 0xfc, 0xe2, 0xd4, 0xde, 0xf4, 0xde, 0xfe, 0xdc, 0xe7,
  0xeb, 0xf1, 0xe2, 0x0c, 0xde, 0xf4, 0xf2, 0xfc, 0x0c, 0x09, 0xdc, 0xea,
  0x0f, 0xfb, 0x1f, 0x03, 0xff, 0x15, 0xc3, 0xf9, 0x11, 0x20, 0xf3, 0x02,
  0xc0, 0xd5, 0x0d, 0x0d, 0xd5, 0xee, 0xfc, 0x08, 0xbf, 0xf2, 0xd4, 0x02,
  0xf7, 0xca, 0xde, 0xbd, 0xf7, 0xd4, 0x16, 0xdc, 0x8c, 0xe6, 0x32, 0x95,
  0x01, 0x0f, 0x05, 0x19, 0xf5, 0x0c, 0xb8, 0x02, 0x04, 0xf8, 0xce, 0x06,
  0x14, 0x06, 0x9e, 0x05, 0xc5, 0xfd, 0x0d, 0xcc, 0xce, 0xf4, 0xff, 0xf1,
  0x0c, 0xe6, 0xb6, 0xf9, 0x13, 0xd0, 0x1a, 0xfb, 0xfc, 0xe5, 0xfa, 0x04,
  0x18, 0x01, 0xe9, 0xdf, 0xfe, 0xed, 0x04, 0xfb, 0xb0, 0xd1, 0x81, 0xf8,
  0xfb, 0x04, 0xbc, 0x0a, 0xcd, 0xc7, 0x07, 0x09, 0xf8, 0xe8, 0xd9, 0xb9,
  0x03, 0xfd, 0x21, 0xfe, 0xc9, 0xf8, 0x1f, 0x02, 0x25, 0xe5, 0xeb, 0xed,
  0xfe, 0xf5, 0x24, 0xdf, 0xbc, 0x01, 0x0e, 0x10, 0x3b, 0xe4, 0xbd, 0xcd,
  0x20, 0x01, 0x44, 0x17, 0xc9, 0xe6, 0xee, 0xe5, 0x17, 0x0a, 0x19, 0xf3,
  0xfa, 0x07, 0x32, 0xd1, 0x31, 0xe5, 0xf2, 0xba, 0x1a, 0x14, 0x24, 0xc0,
  0xef, 0xf1, 0x36, 0xdf, 0xf7, 0xf7, 0x10, 0xe7, 0x28, 0xd4, 0x06, 0x02,
  0x1a, 0x0f, 0x07, 0x0d, 0x0a, 0xc1, 0x0f, 0xf3, 0xad, 0xd6, 0x22, 0xce,
  0xe2, 0xef, 0xbc, 0xed, 0x07, 0xe1, 0x0b, 0xd9, 0xac, 0x16, 0x29, 0x0e,
  0x0f, 0x9f, 0x81, 0x18, 0x34, 0xb7, 0xfc, 0xd9, 0xdf, 0x1e, 0xfd, 0xc9,
  0x0e, 0x26, 0xec, 0xec, 0x0d, 0xcd, 0xff, 0xfe, 0xfd, 0x10, 0xee, 0xb1,
  0x17, 0x0b, 0xf2, 0xec, 0x0b, 0xe1, 0xfc, 0xd9, 0x00, 0x20, 0x21, 0xbd,
  0xc0, 0xe5, 0x96, 0xf9, 0xf5, 0xef, 0x2c, 0xf5, 0xd4, 0xfa, 0x35, 0xe7,
  0x23, 0xb8, 0x01, 0xe1, 0xff, 0xd8, 0x2b, 0xfa, 0xf8, 0xeb, 0x01, 0xda,
  0x06, 0xcd, 0xf3, 0xf4, 0xf0, 0xdd, 0xdc, 0xfb, 0x19, 0xfa, 0x0d, 0x00,
  0xcf, 0xff, 0xf2, 0xf9, 0x3e, 0xf4, 0x18, 0xed, 0x23, 0xfd, 0x04, 0xe7,
  0x08, 0xfb, 0xfb, 0xdb, 0xed, 0x04, 0x1e, 0xc2, 0x37, 0x0a, 0xf3, 0xfc,
  0x0e, 0xf4, 0x22, 0x10, 0x23, 0x04, 0x05, 0x18, 0x11, 0xf9, 0x1d, 0xfd,
  0x10, 0x26, 0x0b, 0xfd, 0x2d, 0x08, 0x0c, 0x1b, 0x1c, 0xf7, 0x1f, 0x0a,
  0x14, 0xdb, 0x11, 0xe0, 0x28, 0x2f, 0xf8, 0xe2, 0x0d, 0x05, 0x07, 0x01,
  0x73, 0xf1, 0x22, 0xc8, 0x00, 0x0b, 0x40, 0x3a, 0x7f, 0xd5, 0x06, 0x0d,
  0x32, 0xdf, 0x3e, 0xdb, 0x39, 0x54, 0x50, 0x97, 0x10, 0x0b, 0x4f, 0xb6,
  0xec, 0x9b, 0x44, 0xfc, 0x44, 0xff, 0x15, 0x02, 0x1f, 0xfd, 0xfd, 0xe1,
  0x60, 0x0d, 0x20, 0x03, 0x15, 0xac, 0x38, 0x12, 0xd2, 0x2d, 0x4c, 0xe7,
  0x1b, 0xda, 0x06, 0x45, 0x47, 0x9d, 0xa0, 0xd7, 0xaa, 0xfa, 0x34, 0xf6,
  0xfe, 0xf2, 0x06, 0xd8, 0x0e, 0xc3, 0x27, 0x89, 0xbc, 0xca, 0x31, 0x9e,
  0x3e, 0xdd, 0xc6, 0x03, 0x1d, 0xa5, 0xfe, 0xff, 0x0a, 0xf8, 0xed, 0xb3,
  0xb8, 0x12, 0x05, 0xe4, 0xeb, 0xf7, 0xa1, 0x23, 0xe4, 0xd1, 0xf8, 0x01,
  0xef, 0xd3, 0xdc, 0xce, 0x10, 0xb4, 0x3c, 0xcf, 0x40, 0xed, 0xe3, 0xd8,
  0x37, 0xcc, 0x6f, 0x05, 0xeb, 0xde, 0x19, 0x00, 0x19, 0x12, 0x0b, 0xfc,
  0x18, 0x2e, 0x23, 0x02, 0x1e, 0x02, 0x0b, 0x1a, 0x22, 0xe9, 0x51, 0x1c,
  0x15, 0xf9, 0x24, 0xcc, 0x02, 0x24, 0x32, 0xd9, 0xed, 0xcc, 0x1f, 0x1d,
  0xfa, 0xfe, 0xff, 0xff, 0x04, 0x00, 0x00, 0x00, 0xa0, 0x00, 0x00, 0x00,
  0x46, 0x01, 0x00, 0x00, 0xeb, 0xfe, 0xff, 0xff, 0x8c, 0x00, 0x00, 0x00,
  0xfd, 0x00, 0x00, 0x00, 0xf5, 0xff, 0xff, 0xff, 0xbb, 0x00, 0x00, 0x00,
  0x74, 0x00, 0x00, 0x00, 0xc6, 0x00, 0x00, 0x00, 0x2e, 0x00, 0x00, 0x00,
  0xc1, 0xff, 0xff, 0xff, 0xe9, 0x00, 0x00, 0x00, 0x20, 0x01, 0x00, 0x00,
  0x6c, 0x00, 0x00, 0x00, 0x6b, 0x00, 0x00, 0x00, 0xc9, 0x00, 0x00, 0x00,
  0x34, 0x01, 0x00, 0x00, 0xd1, 0x00, 0x00, 0x00, 0xae, 0x00, 0x00, 0x00,
  0xf5, 0x00, 0x00, 0x00, 0x40, 0x01, 0x00, 0x00, 0x6a, 0x00, 0x00, 0x00,
  0x73, 0xff, 0xff, 0xff, 0x55, 0x01, 0x00, 0x00, 0x53, 0x00, 0x00, 0x00,
  0x4d, 0x00, 0x00, 0x00, 0x14, 0x01, 0x00, 0x00, 0x59, 0x00, 0x00, 0x00,
  0x1d, 0x00, 0x00, 0x00, 0xff, 0x00, 0x00, 0x00, 0xcd, 0x00, 0x00, 0x00,
  0x57, 0x00, 0x00, 0x00, 0xcc, 0x00, 0x00, 0x00, 0x1a, 0x00, 0x00, 0x00,
  0x34, 0x00, 0x00, 0x00, 0x5f, 0x00, 0x00, 0x00, 0xfd, 0x00, 0x00, 0x00,
  0x03, 0x00, 0x00, 0x00, 0xa9, 0x00, 0x00, 0x00, 0xe1, 0x00, 0x00, 0x00,
  0x17, 0x01, 0x00, 0x00, 0xa6, 0xff, 0xff, 0xff, 0x04, 0x00, 0x00, 0x00,
  0x28, 0x00, 0x00, 0x00, 0x5b, 0x01, 0xd2, 0x62, 0xc7, 0xb7, 0x56, 0x54,
  0x2b, 0x1d, 0x7f, 0xa7, 0xbb, 0xd7, 0x69, 0x5b, 0x4e, 0xa9, 0x74, 0x4b,
  0x33, 0xcb, 0x90, 0x21, 0xb3, 0x5b, 0xcd, 0xec, 0xa4, 0x7a, 0x2c, 0x51,
  0xbe, 0xcf, 0xaf, 0xd1, 0xb6, 0x67, 0xc6, 0xb9, 0xda, 0xff, 0xff, 0xff,
  0x04, 0x00, 0x00, 0x00, 0x04, 0x00, 0x00, 0x00, 0xe1, 0xff, 0xff, 0xff,
  0xea, 0xff, 0xff, 0xff, 0x04, 0x00, 0x00, 0x00, 0x08, 0x00, 0x00, 0x00,
  0xff, 0xff, 0xff, 0xff, 0x96, 0x00, 0x00, 0x00, 0x00, 0x00, 0x06, 0x00,
  0x08, 0x00, 0x04, 0x00, 0x06, 0x00, 0x00, 0x00, 0x04, 0x00, 0x00, 0x00,
  0x08, 0x00, 0x00, 0x00, 0x10, 0x00, 0x00, 0x00, 0x10, 0x00, 0x00, 0x00,
  0x10, 0xee, 0xff, 0xff, 0x14, 0xee, 0xff, 0xff, 0x0f, 0x00, 0x00, 0x00,
  0x4d, 0x4c, 0x49, 0x52, 0x20, 0x43, 0x6f, 0x6e, 0x76, 0x65, 0x72, 0x74,
  0x65, 0x64, 0x2e, 0x00, 0x01, 0x00, 0x00, 0x00, 0x14, 0x00, 0x00, 0x00,
  0x00, 0x00, 0x0e, 0x00, 0x18, 0x00, 0x14, 0x00, 0x10, 0x00, 0x0c, 0x00,
  0x08, 0x00, 0x04, 0x00, 0x0e, 0x00, 0x00, 0x00, 0x14, 0x00, 0x00, 0x00,
  0x1c, 0x00, 0x00, 0x00, 0x84, 0x02, 0x00, 0x00, 0x88, 0x02, 0x00, 0x00,
  0x8c, 0x02, 0x00, 0x00, 0x04, 0x00, 0x00, 0x00, 0x6d, 0x61, 0x69, 0x6e,
  0x00, 0x00, 0x00, 0x00, 0x0a, 0x00, 0x00, 0x00, 0x4c, 0x02, 0x00, 0x00,
  0xfc, 0x01, 0x00, 0x00, 0x98, 0x01, 0x00, 0x00, 0x44, 0x01, 0x00, 0x00,
  0xfc, 0x00, 0x00, 0x00, 0xd4, 0x00, 0x00, 0x00, 0x84, 0x00, 0x00, 0x00,
  0x4c, 0x00, 0x00, 0x00, 0x28, 0x00, 0x00, 0x00, 0x04, 0x00, 0x00, 0x00,
  0x4a, 0xff, 0xff, 0xff, 0x0c, 0x00, 0x00, 0x00, 0x10, 0x00, 0x00, 0x00,
  0x07, 0x00, 0x00, 0x00, 0x01, 0x00, 0x00, 0x00, 0x14, 0x00, 0x00, 0x00,
  0x01, 0x00, 0x00, 0x00, 0x13, 0x00, 0x00, 0x00, 0x6a, 0xff, 0xff, 0xff,
  0x0c, 0x00, 0x00, 0x00, 0x10, 0x00, 0x00, 0x00, 0x06, 0x00, 0x00, 0x00,
  0x01, 0x00, 0x00, 0x00, 0x13, 0x00, 0x00, 0x00, 0x01, 0x00, 0x00, 0x00,
  0x12, 0x00, 0x00, 0x00, 0x76, 0xfe, 0xff, 0xff, 0x14, 0x00, 0x00, 0x00,
  0x00, 0x00, 0x00, 0x08, 0x10, 0x00, 0x00, 0x00, 0x14, 0x00, 0x00, 0x00,
  0x05, 0x00, 0x00, 0x00, 0xec, 0xee, 0xff, 0xff, 0x01, 0x00, 0x00, 0x00,
  0x12, 0x00, 0x00, 0x00, 0x03, 0x00, 0x00, 0x00, 0x11, 0x00, 0x00, 0x00,
  0x04, 0x00, 0x00, 0x00, 0x03, 0x00, 0x00, 0x00, 0xaa, 0xfe, 0xff, 0xff,
  0x1c, 0x00, 0x00, 0x00, 0x00, 0x00, 0x00, 0x08, 0x1c, 0x00, 0x00, 0x00,
  0x20, 0x00, 0x00, 0x00, 0x05, 0x00, 0x00, 0x00, 0x00, 0x00, 0x06, 0x00,
  0x08, 0x00, 0x07, 0x00, 0x06, 0x00, 0x00, 0x00, 0x00, 0x00, 0x00, 0x01,
  0x01, 0x00, 0x00, 0x00, 0x11, 0x00, 0x00, 0x00, 0x03, 0x00, 0x00, 0x00,
  0x10, 0x00, 0x00, 0x00, 0x06, 0x00, 0x00, 0x00, 0x05, 0x00, 0x00, 0x00,
  0x00, 0x00, 0x0a, 0x00, 0x10, 0x00, 0x0c, 0x00, 0x08, 0x00, 0x04, 0x00,
  0x0a, 0x00, 0x00, 0x00, 0x0c, 0x00, 0x00, 0x00, 0x10, 0x00, 0x00, 0x00,
  0x04, 0x00, 0x00, 0x00, 0x01, 0x00, 0x00, 0x00, 0x10, 0x00, 0x00, 0x00,
  0x02, 0x00, 0x00, 0x00, 0x0f, 0x00, 0x00, 0x00, 0x02, 0x00, 0x00, 0x00,
  0x1a, 0xff, 0xff, 0xff, 0x14, 0x00, 0x00, 0x00, 0x00, 0x00, 0x00, 0x01,
  0x20, 0x00, 0x00, 0x00, 0x24, 0x00, 0x00, 0x00, 0x02, 0x00, 0x00, 0x00,
  0x6c, 0xff, 0xff, 0xff, 0x00, 0x00, 0x00, 0x01, 0x01, 0x00, 0x00, 0x00,
  0x01, 0x00, 0x00, 0x00, 0x00, 0x00, 0x00, 0x01, 0x01, 0x00, 0x00, 0x00,
  0x0f, 0x00, 0x00, 0x00, 0x03, 0x00, 0x00, 0x00, 0x0e, 0x00, 0x00, 0x00,
  0x08, 0x00, 0x00, 0x00, 0x07, 0x00, 0x00, 0x00, 0x5e, 0xff, 0xff, 0xff,
  0x24, 0x00, 0x00, 0x00, 0x00, 0x00, 0x00, 0x05, 0x34, 0x00, 0x00, 0x00,
  0x38, 0x00, 0x00, 0x00, 0x03, 0x00, 0x00, 0x00, 0x00, 0x00, 0x0e, 0x00,
  0x18, 0x00, 0x17, 0x00, 0x10, 0x00, 0x0c, 0x00, 0x08, 0x00, 0x04, 0x00,
  0x0e, 0x00, 0x00, 0x00, 0x02, 0x00, 0x00, 0x00, 0x02, 0x00, 0x00, 0x00,
  0x02, 0x00, 0x00, 0x00, 0x02, 0x00, 0x00, 0x00, 0x00, 0x00, 0x00, 0x01,
  0x01, 0x00, 0x00, 0x00, 0x0e, 0x00, 0x00, 0x00, 0x01, 0x00, 0x00, 0x00,
  0x0d, 0x00, 0x00, 0x00, 0xae, 0xff, 0xff, 0xff, 0x20, 0x00, 0x00, 0x00,
  0x00, 0x00, 0x00, 0x01, 0x2c, 0x00, 0x00, 0x00, 0x30, 0x00, 0x00, 0x00,
  0x02, 0x00, 0x00, 0x00, 0x0c, 0x00, 0x14, 0x00, 0x13, 0x00, 0x0c, 0x00,
  0x08, 0x00, 0x07, 0x00, 0x0c, 0x00, 0x00, 0x00, 0x00, 0x00, 0x00, 0x01,
  0x01, 0x00, 0x00, 0x00, 0x01, 0x00, 0x00, 0x00, 0x00, 0x00, 0x00, 0x01,
  0x01, 0x00, 0x00, 0x00, 0x0d, 0x00, 0x00, 0x00, 0x03, 0x00, 0x00, 0x00,
  0x0c, 0x00, 0x00, 0x00, 0x0a, 0x00, 0x00, 0x00, 0x09, 0x00, 0x00, 0x00,
  0x00, 0x00, 0x0e, 0x00, 0x18, 0x00, 0x14, 0x00, 0x10, 0x00, 0x0c, 0x00,
  0x0b, 0x00, 0x04, 0x00, 0x0e, 0x00, 0x00, 0x00, 0x20, 0x00, 0x00, 0x00,
  0x00, 0x00, 0x00, 0x0f, 0x20, 0x00, 0x00, 0x00, 0x24, 0x00, 0x00, 0x00,
  0x01, 0x00, 0x00, 0x00, 0x0c, 0x00, 0x08, 0x00, 0x00, 0x00, 0x00, 0x00,
  0x00, 0x00, 0x07, 0x00, 0x0c, 0x00, 0x00, 0x00, 0x00, 0x00, 0x00, 0x01,
  0x01, 0x00, 0x00, 0x00, 0x0c, 0x00, 0x00, 0x00, 0x02, 0x00, 0x00, 0x00,
  0x0b, 0x00, 0x00, 0x00, 0x01, 0x00, 0x00, 0x00, 0x00, 0x00, 0x0a, 0x00,
  0x0c, 0x00, 0x00, 0x00, 0x08, 0x00, 0x04, 0x00, 0x0a, 0x00, 0x00, 0x00,
  0x08, 0x00, 0x00, 0x00, 0x0c, 0x00, 0x00, 0x00, 0x01, 0x00, 0x00, 0x00,
  0x0b, 0x00, 0x00, 0x00, 0x01, 0x00, 0x00, 0x00, 0x00, 0x00, 0x00, 0x00,
  0x01, 0x00, 0x00, 0x00, 0x14, 0x00, 0x00, 0x00, 0x01, 0x00, 0x00, 0x00,
  0x00, 0x00, 0x00, 0x00, 0x15, 0x00, 0x00, 0x00, 0xe8, 0x0e, 0x00, 0x00,
  0x90, 0x0e, 0x00, 0x00, 0x38, 0x0e, 0x00, 0x00, 0xcc, 0x0d, 0x00, 0x00,
  0x64, 0x0d, 0x00, 0x00, 0x30, 0x0b, 0x00, 0x00, 0xf4, 0x08, 0x00, 0x00,
  0x58, 0x08, 0x00, 0x00, 0xac, 0x07, 0x00, 0x00, 0x10, 0x07, 0x00, 0x00,
  0x64, 0x06, 0x00, 0x00, 0xe0, 0x05, 0x00, 0x00, 0x24, 0x05, 0x00, 0x00,
  0x48, 0x04, 0x00, 0x00, 0xac, 0x03, 0x00, 0x00, 0xd0, 0x02, 0x00, 0x00,
  0x4c, 0x02, 0x00, 0x00, 0x88, 0x01, 0x00, 0x00, 0xe4, 0x00, 0x00, 0x00,
  0x60, 0x00, 0x00, 0x00, 0x04, 0x00, 0x00, 0x00, 0x82, 0xf1, 0xff, 0xff,
  0x00, 0x00, 0x00, 0x01, 0x14, 0x00, 0x00, 0x00, 0x1c, 0x00, 0x00, 0x00,
  0x1c, 0x00, 0x00, 0x00, 0x15, 0x00, 0x00, 0x00, 0x34, 0x00, 0x00, 0x00,
  0x02, 0x00, 0x00, 0x00, 0xff, 0xff, 0xff, 0xff, 0x01, 0x00, 0x00, 0x00,
  0x64, 0xf1, 0xff, 0xff, 0x1b, 0x00, 0x00, 0x00, 0x53, 0x74, 0x61, 0x74,
  0x65, 0x66, 0x75, 0x6c, 0x50, 0x61, 0x72, 0x74, 0x69, 0x74, 0x69, 0x6f,
  0x6e, 0x65, 0x64, 0x43, 0x61, 0x6c, 0x6c, 0x5f, 0x31, 0x3a, 0x30, 0x00,
  0x02, 0x00, 0x00, 0x00, 0x01, 0x00, 0x00, 0x00, 0x01, 0x00, 0x00, 0x00,
  0xb6, 0xfa, 0xff, 0xff, 0x00, 0x00, 0x00, 0x01, 0x18, 0x00, 0x00, 0x00,
  0x20, 0x00, 0x00, 0x00, 0x40, 0x00, 0x00, 0x00, 0x14, 0x00, 0x00, 0x00,
  0x00, 0x00, 0x00, 0x09, 0x58, 0x00, 0x00, 0x00, 0x02, 0x00, 0x00, 0x00,
  0xff, 0xff, 0xff, 0xff, 0x01, 0x00, 0x00, 0x00, 0xe4, 0xf2, 0xff, 0xff,
  0x08, 0x00, 0x00, 0x00, 0x14, 0x00, 0x00, 0x00, 0x01, 0x00, 0x00, 0x00,
  0x80, 0xff, 0xff, 0xff, 0xff, 0xff, 0xff, 0xff, 0x00, 0x00, 0x00, 0x00,
  0x01, 0x00, 0x00, 0x00, 0x00, 0x00, 0x80, 0x3b, 0x1c, 0x00, 0x00, 0x00,
  0x53, 0x74, 0x61, 0x74, 0x65, 0x66, 0x75, 0x6c, 0x50, 0x61, 0x72, 0x74,
  0x69, 0x74, 0x69, 0x6f, 0x6e, 0x65, 0x64, 0x43, 0x61, 0x6c, 0x6c, 0x5f,
  0x31, 0x3a, 0x30, 0x31, 0x00, 0x00, 0x00, 0x00, 0x02, 0x00, 0x00, 0x00,
  0x01, 0x00, 0x00, 0x00, 0x01, 0x00, 0x00, 0x00, 0x36, 0xfb, 0xff, 0xff,
  0x00, 0x00, 0x00, 0x01, 0x18, 0x00, 0x00, 0x00, 0x20, 0x00, 0x00, 0x00,
  0x40, 0x00, 0x00, 0x00, 0x13, 0x00, 0x00, 0x00, 0x00, 0x00, 0x00, 0x09,
  0x78, 0x00, 0x00, 0x00, 0x02, 0x00, 0x00, 0x00, 0xff, 0xff, 0xff, 0xff,
  0x01, 0x00, 0x00, 0x00, 0x64, 0xf3, 0xff, 0xff, 0x08, 0x00, 0x00, 0x00,
  0x14, 0x00, 0x00, 0x00, 0x01, 0x00, 0x00, 0x00, 0x6b, 0x00, 0x00, 0x00,
  0x00, 0x00, 0x00, 0x00, 0x00, 0x00, 0x00, 0x00, 0x01, 0x00, 0x00, 0x00,
  0xef, 0xf9, 0x98, 0x3f, 0x3e, 0x00, 0x00, 0x00, 0x73, 0x65, 0x71, 0x75,
  0x65, 0x6e, 0x74, 0x69, 0x61, 0x6c, 0x5f, 0x38, 0x5f, 0x31, 0x2f, 0x64,
  0x65, 0x6e, 0x73, 0x65, 0x5f, 0x31, 0x37, 0x5f, 0x31, 0x2f, 0x4d, 0x61,
  0x74, 0x4d, 0x75, 0x6c, 0x3b, 0x73, 0x65, 0x71, 0x75, 0x65, 0x6e, 0x74,
  0x69, 0x61, 0x6c, 0x5f, 0x38, 0x5f, 0x31, 0x2f, 0x64, 0x65, 0x6e, 0x73,
  0x65, 0x5f, 0x31, 0x37, 0x5f, 0x31, 0x2f, 0x41, 0x64, 0x64, 0x00, 0x00,
  0x02, 0x00, 0x00, 0x00, 0x01, 0x00, 0x00, 0x00, 0x01, 0x00, 0x00, 0x00,
  0xd6, 0xfb, 0xff, 0xff, 0x00, 0x00, 0x00, 0x01, 0x18, 0x00, 0x00, 0x00,
  0x20, 0x00, 0x00, 0x00, 0x40, 0x00, 0x00, 0x00, 0x12, 0x00, 0x00, 0x00,
  0x00, 0x00, 0x00, 0x09, 0x98, 0x00, 0x00, 0x00, 0x02, 0x00, 0x00, 0x00,
  0xff, 0xff, 0xff, 0xff, 0x28, 0x00, 0x00, 0x00, 0x04, 0xf4, 0xff, 0xff,
  0x08, 0x00, 0x00, 0x00, 0x14, 0x00, 0x00, 0x00, 0x01, 0x00, 0x00, 0x00,
  0x80, 0xff, 0xff, 0xff, 0xff, 0xff, 0xff, 0xff, 0x00, 0x00, 0x00, 0x00,
  0x01, 0x00, 0x00, 0x00, 0xe1, 0x1d, 0x81, 0x3e, 0x5d, 0x00, 0x00, 0x00,
  0x73, 0x65, 0x71, 0x75, 0x65, 0x6e, 0x74, 0x69, 0x61, 0x6c, 0x5f, 0x38,
  0x5f, 0x31, 0x2f, 0x64, 0x65, 0x6e, 0x73, 0x65, 0x5f, 0x31, 0x36, 0x5f,
  0x31, 0x2f, 0x4d, 0x61, 0x74, 0x4d, 0x75, 0x6c, 0x3b, 0x73, 0x65, 0x71,
  0x75, 0x65, 0x6e, 0x74, 0x69, 0x61, 0x6c, 0x5f, 0x38, 0x5f, 0x31, 0x2f,
  0x64, 0x65, 0x6e, 0x73, 0x65, 0x5f, 0x31, 0x36, 0x5f, 0x31, 0x2f, 0x52,
  0x65, 0x6c, 0x75, 0x3b, 0x73, 0x65, 0x71, 0x75, 0x65, 0x6e, 0x74, 0x69,
  0x61, 0x6c, 0x5f, 0x38, 0x5f, 0x31, 0x2f, 0x64, 0x65, 0x6e, 0x73, 0x65,
  0x5f, 0x31, 0x36, 0x5f, 0x31, 0x2f, 0x41, 0x64, 0x64, 0x00, 0x00, 0x00,
  0x02, 0x00, 0x00, 0x00, 0x01, 0x00, 0x00, 0x00, 0x28, 0x00, 0x00, 0x00,
  0x96, 0xfc, 0xff, 0xff, 0x00, 0x00, 0x00, 0x01, 0x18, 0x00, 0x00, 0x00,
  0x20, 0x00, 0x00, 0x00, 0x3c, 0x00, 0x00, 0x00, 0x11, 0x00, 0x00, 0x00,
  0x00, 0x00, 0x00, 0x09, 0x58, 0x00, 0x00, 0x00, 0x02, 0x00, 0x00, 0x00,
  0xff, 0xff, 0xff, 0xff, 0x96, 0x00, 0x00, 0x00, 0xc4, 0xf4, 0xff, 0xff,
  0x08, 0x00, 0x00, 0x00, 0x10, 0x00, 0x00, 0x00, 0x01, 0x00, 0x00, 0x00,
  0x80, 0xff, 0xff, 0xff, 0xff, 0xff, 0xff, 0xff, 0x01, 0x00, 0x00, 0x00,
  0x9b, 0xfb, 0x1c, 0x3e, 0x22, 0x00, 0x00, 0x00, 0x73, 0x65, 0x71, 0x75,
  0x65, 0x6e, 0x74, 0x69, 0x61, 0x6c, 0x5f, 0x38, 0x5f, 0x31, 0x2f, 0x66,
  0x6c, 0x61, 0x74, 0x74, 0x65, 0x6e, 0x5f, 0x38, 0x5f, 0x31, 0x2f, 0x52,
  0x65, 0x73, 0x68, 0x61, 0x70, 0x65, 0x00, 0x00, 0x02, 0x00, 0x00, 0x00,
  0x01, 0x00, 0x00, 0x00, 0x96, 0x00, 0x00, 0x00, 0x16, 0xfd, 0xff, 0xff,
  0x00, 0x00, 0x00, 0x01, 0x18, 0x00, 0x00, 0x00, 0x28, 0x00, 0x00, 0x00,
  0x48, 0x00, 0x00, 0x00, 0x10, 0x00, 0x00, 0x00, 0x00, 0x00, 0x00, 0x09,
  0xa8, 0x00, 0x00, 0x00, 0x04, 0x00, 0x00, 0x00, 0xff, 0xff, 0xff, 0xff,
  0x05, 0x00, 0x00, 0x00, 0x05, 0x00, 0x00, 0x00, 0x06, 0x00, 0x00, 0x00,
  0x4c, 0xf5, 0xff, 0xff, 0x08, 0x00, 0x00, 0x00, 0x14, 0x00, 0x00, 0x00,
  0x01, 0x00, 0x00, 0x00, 0x80, 0xff, 0xff, 0xff, 0xff, 0xff, 0xff, 0xff,
  0x00, 0x00, 0x00, 0x00, 0x01, 0x00, 0x00, 0x00, 0x9b, 0xfb, 0x1c, 0x3e,
  0x66, 0x00, 0x00, 0x00, 0x73, 0x65, 0x71, 0x75, 0x65, 0x6e, 0x74, 0x69,
  0x61, 0x6c, 0x5f, 0x38, 0x5f, 0x31, 0x2f, 0x63, 0x6f, 0x6e, 0x76, 0x32,
  0x64, 0x5f, 0x32, 0x33, 0x5f, 0x31, 0x2f, 0x52, 0x65, 0x6c, 0x75, 0x3b,
  0x73, 0x65, 0x71, 0x75, 0x65, 0x6e, 0x74, 0x69, 0x61, 0x6c, 0x5f, 0x38,
  0x5f, 0x31, 0x2f, 0x63, 0x6f, 0x6e, 0x76, 0x32, 0x64, 0x5f, 0x32, 0x33,
  0x5f, 0x31, 0x2f, 0x61, 0x64, 0x64, 0x3b, 0x73, 0x65, 0x71, 0x75, 0x65,
  0x6e, 0x74, 0x69, 0x61, 0x6c, 0x5f, 0x38, 0x5f, 0x31, 0x2f, 0x63, 0x6f,
  0x6e, 0x76, 0x32, 0x64, 0x5f, 0x32, 0x33, 0x5f, 0x31, 0x2f, 0x63, 0x6f,
  0x6e, 0x76, 0x6f, 0x6c, 0x75, 0x74, 0x69, 0x6f, 0x6e, 0x3b, 0x00, 0x00,
  0x04, 0x00, 0x00, 0x00, 0x01, 0x00, 0x00, 0x00, 0x05, 0x00, 0x00, 0x00,
  0x05, 0x00, 0x00, 0x00, 0x06, 0x00, 0x00, 0x00, 0xee, 0xfd, 0xff, 0xff,
  0x00, 0x00, 0x00, 0x01, 0x18, 0x00, 0x00, 0x00, 0x28, 0x00, 0x00, 0x00,
  0x44, 0x00, 0x00, 0x00, 0x0f, 0x00, 0x00, 0x00, 0x00, 0x00, 0x00, 0x09,
  0x68, 0x00, 0x00, 0x00, 0x04, 0x00, 0x00, 0x00, 0xff, 0xff, 0xff, 0xff,
  0x07, 0x00, 0x00, 0x00, 0x07, 0x00, 0x00, 0x00, 0x06, 0x00, 0x00, 0x00,
  0x24, 0xf6, 0xff, 0xff, 0x08, 0x00, 0x00, 0x00, 0x10, 0x00, 0x00, 0x00,
  0x01, 0x00, 0x00, 0x00, 0x80, 0xff, 0xff, 0xff, 0xff, 0xff, 0xff, 0xff,
  0x01, 0x00, 0x00, 0x00, 0xf3, 0x2b, 0x68, 0x3e, 0x2b, 0x00, 0x00, 0x00,
  0x73, 0x65, 0x71, 0x75, 0x65, 0x6e, 0x74, 0x69, 0x61, 0x6c, 0x5f, 0x38,
  0x5f, 0x31, 0x2f, 0x6d, 0x61, 0x78, 0x5f, 0x70, 0x6f, 0x6f, 0x6c, 0x69,
  0x6e, 0x67, 0x32, 0x64, 0x5f, 0x31, 0x32, 0x5f, 0x31, 0x2f, 0x4d, 0x61,
  0x78, 0x50, 0x6f, 0x6f, 0x6c, 0x32, 0x64, 0x00, 0x04, 0x00, 0x00, 0x00,
  0x01, 0x00, 0x00, 0x00, 0x07, 0x00, 0x00, 0x00, 0x07, 0x00, 0x00, 0x00,
  0x06, 0x00, 0x00, 0x00, 0x86, 0xfe, 0xff, 0xff, 0x00, 0x00, 0x00, 0x01,
  0x18, 0x00, 0x00, 0x00, 0x28, 0x00, 0x00, 0x00, 0x48, 0x00, 0x00, 0x00,
  0x0e, 0x00, 0x00, 0x00, 0x00, 0x00, 0x00, 0x09, 0xa8, 0x00, 0x00, 0x00,
  0x04, 0x00, 0x00, 0x00, 0xff, 0xff, 0xff, 0xff, 0x0e, 0x00, 0x00, 0x00,
  0x0e, 0x00, 0x00, 0x00, 0x06, 0x00, 0x00, 0x00, 0xbc, 0xf6, 0xff, 0xff,
  0x08, 0x00, 0x00, 0x00, 0x14, 0x00, 0x00, 0x00, 0x01, 0x00, 0x00, 0x00,
  0x80, 0xff, 0xff, 0xff, 0xff, 0xff, 0xff, 0xff, 0x00, 0x00, 0x00, 0x00,
  0x01, 0x00, 0x00, 0x00, 0xf3, 0x2b, 0x68, 0x3e, 0x66, 0x00, 0x00, 0x00,
  0x73, 0x65, 0x71, 0x75, 0x65, 0x6e, 0x74, 0x69, 0x61, 0x6c, 0x5f, 0x38,
  0x5f, 0x31, 0x2f, 0x63, 0x6f, 0x6e, 0x76, 0x32, 0x64, 0x5f, 0x32, 0x32,
  0x5f, 0x31, 0x2f, 0x52, 0x65, 0x6c, 0x75, 0x3b, 0x73, 0x65, 0x71, 0x75,
  0x65, 0x6e, 0x74, 0x69, 0x61, 0x6c, 0x5f, 0x38, 0x5f, 0x31, 0x2f, 0x63,
  0x6f, 0x6e, 0x76, 0x32, 0x64, 0x5f, 0x32, 0x32, 0x5f, 0x31, 0x2f, 0x61,
  0x64, 0x64, 0x3b, 0x73, 0x65, 0x71, 0x75, 0x65, 0x6e, 0x74, 0x69, 0x61,
  0x6c, 0x5f, 0x38, 0x5f, 0x31, 0x2f, 0x63, 0x6f, 0x6e, 0x76, 0x32, 0x64,
  0x5f, 0x32, 0x32, 0x5f, 0x31, 0x2f, 0x63, 0x6f, 0x6e, 0x76, 0x6f, 0x6c,
  0x75, 0x74, 0x69, 0x6f, 0x6e, 0x3b, 0x00, 0x00, 0x04, 0x00, 0x00, 0x00,
  0x01, 0x00, 0x00, 0x00, 0x0e, 0x00, 0x00, 0x00, 0x0e, 0x00, 0x00, 0x00,
  0x06, 0x00, 0x00, 0x00, 0x5e, 0xff, 0xff, 0xff, 0x00, 0x00, 0x00, 0x01,
  0x18, 0x00, 0x00, 0x00, 0x28, 0x00, 0x00, 0x00, 0x44, 0x00, 0x00, 0x00,
  0x0d, 0x00, 0x00, 0x00, 0x00, 0x00, 0x00, 0x09, 0x70, 0x00, 0x00, 0x00,
  0x04, 0x00, 0x00, 0x00, 0xff, 0xff, 0xff, 0xff, 0x10, 0x00, 0x00, 0x00,
  0x10, 0x00, 0x00, 0x00, 0x01, 0x00, 0x00, 0x00, 0x94, 0xf7, 0xff, 0xff,
  0x08, 0x00, 0x00, 0x00, 0x10, 0x00, 0x00, 0x00, 0x01, 0x00, 0x00, 0x00,
  0x80, 0xff, 0xff, 0xff, 0xff, 0xff, 0xff, 0xff, 0x01, 0x00, 0x00, 0x00,
  0x9a, 0xa1, 0xa8, 0x3e, 0x31, 0x00, 0x00, 0x00, 0x73, 0x65, 0x71, 0x75,
  0x65, 0x6e, 0x74, 0x69, 0x61, 0x6c, 0x5f, 0x38, 0x5f, 0x31, 0x2f, 0x72,
  0x65, 0x73, 0x69, 0x7a, 0x69, 0x6e, 0x67, 0x5f, 0x38, 0x5f, 0x31, 0x2f,
  0x72, 0x65, 0x73, 0x69, 0x7a, 0x65, 0x2f, 0x52, 0x65, 0x73, 0x69, 0x7a,
  0x65, 0x42, 0x69, 0x6c, 0x69, 0x6e, 0x65, 0x61, 0x72, 0x00, 0x00, 0x00,
  0x04, 0x00, 0x00, 0x00, 0x01, 0x00, 0x00, 0x00, 0x10, 0x00, 0x00, 0x00,
  0x10, 0x00, 0x00, 0x00, 0x01, 0x00, 0x00, 0x00, 0x00, 0x00, 0x16, 0x00,
  0x20, 0x00, 0x1c, 0x00, 0x1b, 0x00, 0x14, 0x00, 0x10, 0x00, 0x0c, 0x00,
  0x00, 0x00, 0x00, 0x00, 0x08, 0x00, 0x07, 0x00, 0x16, 0x00, 0x00, 0x00,
  0x00, 0x00, 0x00, 0x01, 0x18, 0x00, 0x00, 0x00, 0x28, 0x00, 0x00, 0x00,
  0x48, 0x00, 0x00, 0x00, 0x0c, 0x00, 0x00, 0x00, 0x00, 0x00, 0x00, 0x09,
  0x50, 0x00, 0x00, 0x00, 0x04, 0x00, 0x00, 0x00, 0xff, 0xff, 0xff, 0xff,
  0x7c, 0x00, 0x00, 0x00, 0x81, 0x00, 0x00, 0x00, 0x01, 0x00, 0x00, 0x00,
  0x4c, 0xf8, 0xff, 0xff, 0x08, 0x00, 0x00, 0x00, 0x14, 0x00, 0x00, 0x00,
  0x01, 0x00, 0x00, 0x00, 0x80, 0xff, 0xff, 0xff, 0xff, 0xff, 0xff, 0xff,
  0x00, 0x00, 0x00, 0x00, 0x01, 0x00, 0x00, 0x00, 0x9a, 0xa1, 0xa8, 0x3e,
  0x0c, 0x00, 0x00, 0x00, 0x74, 0x66, 0x6c, 0x2e, 0x71, 0x75, 0x61, 0x6e,
  0x74, 0x69, 0x7a, 0x65, 0x00, 0x00, 0x00, 0x00, 0x04, 0x00, 0x00, 0x00,
  0x01, 0x00, 0x00, 0x00, 0x7c, 0x00, 0x00, 0x00, 0x81, 0x00, 0x00, 0x00,
  0x01, 0x00, 0x00, 0x00, 0x0e, 0xf8, 0xff, 0xff, 0x00, 0x00, 0x00, 0x01,
  0x14, 0x00, 0x00, 0x00, 0x70, 0x00, 0x00, 0x00, 0x0b, 0x00, 0x00, 0x00,
  0x00, 0x00, 0x00, 0x09, 0x7c, 0x00, 0x00, 0x00, 0xb4, 0xf8, 0xff, 0xff,
  0x08, 0x00, 0x00, 0x00, 0x3c, 0x00, 0x00, 0x00, 0x06, 0x00, 0x00, 0x00,
  0x00, 0x00, 0x00, 0x00, 0x00, 0x00, 0x00, 0x00, 0x00, 0x00, 0x00, 0x00,
  0x00, 0x00, 0x00, 0x00, 0x00, 0x00, 0x00, 0x00, 0x00, 0x00, 0x00, 0x00,
  0x00, 0x00, 0x00, 0x00, 0x00, 0x00, 0x00, 0x00, 0x00, 0x00, 0x00, 0x00,
  0x00, 0x00, 0x00, 0x00, 0x00, 0x00, 0x00, 0x00, 0x00, 0x00, 0x00, 0x00,
  0x00, 0x00, 0x00, 0x00, 0x06, 0x00, 0x00, 0x00, 0xa3, 0x19, 0x92, 0x3b,
  0x93, 0xc2, 0x2b, 0x3c, 0xc4, 0x80, 0xc6, 0x3b, 0x70, 0x19, 0x0b, 0x3c,
  0x23, 0x2a, 0x13, 0x3c, 0x9a, 0xe6, 0x37, 0x3c, 0x12, 0x00, 0x00, 0x00,
  0x74, 0x66, 0x6c, 0x2e, 0x70, 0x73, 0x65, 0x75, 0x64, 0x6f, 0x5f, 0x71,
  0x63, 0x6f, 0x6e, 0x73, 0x74, 0x37, 0x00, 0x00, 0x04, 0x00, 0x00, 0x00,
  0x06, 0x00, 0x00, 0x00, 0x03, 0x00, 0x00, 0x00, 0x03, 0x00, 0x00, 0x00,
  0x01, 0x00, 0x00, 0x00, 0xb6, 0xf8, 0xff, 0xff, 0x00, 0x00, 0x00, 0x01,
  0x14, 0x00, 0x00, 0x00, 0x6c, 0x00, 0x00, 0x00, 0x0a, 0x00, 0x00, 0x00,
  0x00, 0x00, 0x00, 0x02, 0x78, 0x00, 0x00, 0x00, 0x5c, 0xf9, 0xff, 0xff,
  0x08, 0x00, 0x00, 0x00, 0x38, 0x00, 0x00, 0x00, 0x06, 0x00, 0x00, 0x00,
  0x00, 0x00, 0x00, 0x00, 0x00, 0x00, 0x00, 0x00, 0x00, 0x00, 0x00, 0x00,
  0x00, 0x00, 0x00, 0x00, 0x00, 0x00, 0x00, 0x00, 0x00, 0x00, 0x00, 0x00,
  0x00, 0x00, 0x00, 0x00, 0x00, 0x00, 0x00, 0x00, 0x00, 0x00, 0x00, 0x00,
  0x00, 0x00, 0x00, 0x00, 0x00, 0x00, 0x00, 0x00, 0x00, 0x00, 0x00, 0x00,
  0x06, 0x00, 0x00, 0x00, 0x1a, 0x7a, 0xc0, 0x3a, 0x3a, 0x48, 0x62, 0x3b,
  0xcf, 0xc1, 0x02, 0x3b, 0x00, 0x41, 0x37, 0x3b, 0x1a, 0xe1, 0x41, 0x3b,
  0xd7, 0x46, 0x72, 0x3b, 0x12, 0x00, 0x00, 0x00, 0x74, 0x66, 0x6c, 0x2e,
  0x70, 0x73, 0x65, 0x75, 0x64, 0x6f, 0x5f, 0x71, 0x63, 0x6f, 0x6e, 0x73,
  0x74, 0x36, 0x00, 0x00, 0x01, 0x00, 0x00, 0x00, 0x06, 0x00, 0x00, 0x00,
  0x4e, 0xf9, 0xff, 0xff, 0x00, 0x00, 0x00, 0x01, 0x14, 0x00, 0x00, 0x00,
  0x70, 0x00, 0x00, 0x00, 0x09, 0x00, 0x00, 0x00, 0x00, 0x00, 0x00, 0x09,
  0x7c, 0x00, 0x00, 0x00, 0xf4, 0xf9, 0xff, 0xff, 0x08, 0x00, 0x00, 0x00,
  0x3c, 0x00, 0x00, 0x00, 0x06, 0x00, 0x00, 0x00, 0x00, 0x00, 0x00, 0x00,
  0x00, 0x00, 0x00, 0x00, 0x00, 0x00, 0x00, 0x00, 0x00, 0x00, 0x00, 0x00,
  0x00, 0x00, 0x00, 0x00, 0x00, 0x00, 0x00, 0x00, 0x00, 0x00, 0x00, 0x00,
  0x00, 0x00, 0x00, 0x00, 0x00, 0x00, 0x00, 0x00, 0x00, 0x00, 0x00, 0x00,
  0x00, 0x00, 0x00, 0x00, 0x00, 0x00, 0x00, 0x00, 0x00, 0x00, 0x00, 0x00,
  0x06, 0x00, 0x00, 0x00, 0x2b, 0x1d, 0xea, 0x3b, 0xf1, 0x07, 0xeb, 0x3b,
  0xba, 0xce, 0x5a, 0x3c, 0xdd, 0xf4, 0xe2, 0x3b, 0x5b, 0x75, 0x17, 0x3c,
  0x41, 0xae, 0xe9, 0x3b, 0x12, 0x00, 0x00, 0x00, 0x74, 0x66, 0x6c, 0x2e,
  0x70, 0x73, 0x65, 0x75, 0x64, 0x6f, 0x5f, 0x71, 0x63, 0x6f, 0x6e, 0x73,
  0x74, 0x35, 0x00, 0x00, 0x04, 0x00, 0x00, 0x00, 0x06, 0x00, 0x00, 0x00,
  0x03, 0x00, 0x00, 0x00, 0x03, 0x00, 0x00, 0x00, 0x06, 0x00, 0x00, 0x00,
  0xf6, 0xf9, 0xff, 0xff, 0x00, 0x00, 0x00, 0x01, 0x14, 0x00, 0x00, 0x00,
  0x6c, 0x00, 0x00, 0x00, 0x08, 0x00, 0x00, 0x00, 0x00, 0x00, 0x00, 0x02,
  0x78, 0x00, 0x00, 0x00, 0x9c, 0xfa, 0xff, 0xff, 0x08, 0x00, 0x00, 0x00,
  0x38, 0x00, 0x00, 0x00, 0x06, 0x00, 0x00, 0x00, 0x00, 0x00, 0x00, 0x00,
  0x00, 0x00, 0x00, 0x00, 0x00, 0x00, 0x00, 0x00, 0x00, 0x00, 0x00, 0x00,
  0x00, 0x00, 0x00, 0x00, 0x00, 0x00, 0x00, 0x00, 0x00, 0x00, 0x00, 0x00,
  0x00, 0x00, 0x00, 0x00, 0x00, 0x00, 0x00, 0x00, 0x00, 0x00, 0x00, 0x00,
  0x00, 0x00, 0x00, 0x00, 0x00, 0x00, 0x00, 0x00, 0x06, 0x00, 0x00, 0x00,
  0xa0, 0x52, 0xd4, 0x3a, 0x8c, 0x27, 0xd5, 0x3a, 0xe9, 0x70, 0x46, 0x3b,
  0xdf, 0xd4, 0xcd, 0x3a, 0x5b, 0x5c, 0x09, 0x3b, 0x09, 0xee, 0xd3, 0x3a,
  0x12, 0x00, 0x00, 0x00, 0x74, 0x66, 0x6c, 0x2e, 0x70, 0x73, 0x65, 0x75,
  0x64, 0x6f, 0x5f, 0x71, 0x63, 0x6f, 0x6e, 0x73, 0x74, 0x34, 0x00, 0x00,
  0x01, 0x00, 0x00, 0x00, 0x06, 0x00, 0x00, 0x00, 0x8e, 0xfa, 0xff, 0xff,
  0x00, 0x00, 0x00, 0x01, 0x14, 0x00, 0x00, 0x00, 0x08, 0x02, 0x00, 0x00,
  0x07, 0x00, 0x00, 0x00, 0x00, 0x00, 0x00, 0x09, 0x14, 0x02, 0x00, 0x00,
  0x34, 0xfb, 0xff, 0xff, 0x08, 0x00, 0x00, 0x00, 0x4c, 0x01, 0x00, 0x00,
  0x28, 0x00, 0x00, 0x00, 0x00, 0x00, 0x00, 0x00, 0x00, 0x00, 0x00, 0x00,
  0x00, 0x00, 0x00, 0x00, 0x00, 0x00, 0x00, 0x00, 0x00, 0x00, 0x00, 0x00,
  0x00, 0x00, 0x00, 0x00, 0x00, 0x00, 0x00, 0x00, 0x00, 0x00, 0x00, 0x00,
  0x00, 0x00, 0x00, 0x00, 0x00, 0x00, 0x00, 0x00, 0x00, 0x00, 0x00, 0x00,
  0x00, 0x00, 0x00, 0x00, 0x00, 0x00, 0x00, 0x00, 0x00, 0x00, 0x00, 0x00,
  0x00, 0x00, 0x00, 0x00, 0x00, 0x00, 0x00, 0x00, 0x00, 0x00, 0x00, 0x00,
  0x00, 0x00, 0x00, 0x00, 0x00, 0x00, 0x00, 0x00, 0x00, 0x00, 0x00, 0x00,
  0x00, 0x00, 0x00, 0x00, 0x00, 0x00, 0x00, 0x00, 0x00, 0x00, 0x00, 0x00,
  0x00, 0x00, 0x00, 0x00, 0x00, 0x00, 0x00, 0x00, 0x00, 0x00, 0x00, 0x00,
  0x00, 0x00, 0x00, 0x00, 0x00, 0x00, 0x00, 0x00, 0x00, 0x00, 0x00, 0x00,
  0x00, 0x00, 0x00, 0x00, 0x00, 0x00, 0x00, 0x00, 0x00, 0x00, 0x00, 0x00,
  0x00, 0x00, 0x00, 0x00, 0x00, 0x00, 0x00, 0x00, 0x00, 0x00, 0x00, 0x00,
  0x00, 0x00, 0x00, 0x00, 0x00, 0x00, 0x00, 0x00, 0x00, 0x00, 0x00, 0x00,
  0x00, 0x00, 0x00, 0x00, 0x00, 0x00, 0x00, 0x00, 0x00, 0x00, 0x00, 0x00,
  0x00, 0x00, 0x00, 0x00, 0x00, 0x00, 0x00, 0x00, 0x00, 0x00, 0x00, 0x00,
  0x00, 0x00, 0x00, 0x00, 0x00, 0x00, 0x00, 0x00, 0x00, 0x00, 0x00, 0x00,
  0x00, 0x00, 0x00, 0x00, 0x00, 0x00, 0x00, 0x00, 0x00, 0x00, 0x00, 0x00,
  0x00, 0x00, 0x00, 0x00, 0x00, 0x00, 0x00, 0x00, 0x00, 0x00, 0x00, 0x00,
  0x00, 0x00, 0x00, 0x00, 0x00, 0x00, 0x00, 0x00, 0x00, 0x00, 0x00, 0x00,
  0x00, 0x00, 0x00, 0x00, 0x00, 0x00, 0x00, 0x00, 0x00, 0x00, 0x00, 0x00,
  0x00, 0x00, 0x00, 0x00, 0x00, 0x00, 0x00, 0x00, 0x00, 0x00, 0x00, 0x00,
  0x00, 0x00, 0x00, 0x00, 0x00, 0x00, 0x00, 0x00, 0x00, 0x00, 0x00, 0x00,
  0x00, 0x00, 0x00, 0x00, 0x00, 0x00, 0x00, 0x00, 0x00, 0x00, 0x00, 0x00,
  0x00, 0x00, 0x00, 0x00, 0x00, 0x00, 0x00, 0x00, 0x00, 0x00, 0x00, 0x00,
  0x00, 0x00, 0x00, 0x00, 0x00, 0x00, 0x00, 0x00, 0x00, 0x00, 0x00, 0x00,
  0x00, 0x00, 0x00, 0x00, 0x00, 0x00, 0x00, 0x00, 0x00, 0x00, 0x00, 0x00,
  0x00, 0x00, 0x00, 0x00, 0x00, 0x00, 0x00, 0x00, 0x00, 0x00, 0x00, 0x00,
  0x00, 0x00, 0x00, 0x00, 0x28, 0x00, 0x00, 0x00, 0xbf, 0x00, 0x4e, 0x3c,
  0x17, 0x16, 0x14, 0x3b, 0x1f, 0xcd, 0xef, 0x3b, 0x8e, 0xa8, 0x02, 0x3c,
  0x0c, 0xb4, 0x47, 0x3c, 0x87, 0xa4, 0xf5, 0x3b, 0x30, 0xa0, 0x6e, 0x3c,
  0x64, 0xd4, 0x1d, 0x3c, 0xab, 0x90, 0x1d, 0x3c, 0x17, 0xb2, 0xef, 0x3b,
  0x72, 0x3b, 0x29, 0x3c, 0x0a, 0xf4, 0xaf, 0x3b, 0x41, 0xef, 0x03, 0x3c,
  0xe9, 0x56, 0xd1, 0x3b, 0xef, 0xe7, 0x40, 0x3c, 0x78, 0x4d, 0x14, 0x3c,
  0xc9, 0x51, 0x13, 0x3c, 0xe9, 0x3c, 0x2e, 0x3c, 0xde, 0xe3, 0x43, 0x3c,
  0xb1, 0x61, 0x0a, 0x3c, 0x17, 0xf9, 0x4c, 0x3c, 0x38, 0x99, 0xf8, 0x3b,
  0xe4, 0x40, 0xeb, 0x3b, 0xdd, 0xe4, 0x01, 0x3c, 0x92, 0x4f, 0x2c, 0x3c,
  0x5f, 0x2c, 0x30, 0x3c, 0xdb, 0x15, 0xd8, 0x3b, 0xd3, 0x5b, 0xfd, 0x3b,
  0xf7, 0x21, 0xca, 0x3b, 0x03, 0x81, 0x64, 0x3c, 0xbe, 0x0f, 0x14, 0x3c,
  0xc3, 0x35, 0x68, 0x3c, 0x87, 0xc8, 0x43, 0x3c, 0xff, 0x67, 0x14, 0x3c,
  0x38, 0xcc, 0xeb, 0x3b, 0x1e, 0xf6, 0x07, 0x3c, 0x7a, 0x06, 0x42, 0x3c,
  0xaa, 0xae, 0x2a, 0x3c, 0x2a, 0xee, 0x0c, 0x3c, 0x0a, 0xdb, 0xbf, 0x3b,
  0x12, 0x00, 0x00, 0x00, 0x74, 0x66, 0x6c, 0x2e, 0x70, 0x73, 0x65, 0x75,
  0x64, 0x6f, 0x5f, 0x71, 0x63, 0x6f, 0x6e, 0x73, 0x74, 0x33, 0x00, 0x00,
  0x02, 0x00, 0x00, 0x00, 0x28, 0x00, 0x00, 0x00, 0x96, 0x00, 0x00, 0x00,
  0xc6, 0xfc, 0xff, 0xff, 0x00, 0x00, 0x00, 0x01, 0x14, 0x00, 0x00, 0x00,
  0x04, 0x02, 0x00, 0x00, 0x06, 0x00, 0x00, 0x00, 0x00, 0x00, 0x00, 0x02,
  0x10, 0x02, 0x00, 0x00, 0x6c, 0xfd, 0xff, 0xff, 0x08, 0x00, 0x00, 0x00,
  0x48, 0x01, 0x00, 0x00, 0x28, 0x00, 0x00, 0x00, 0x00, 0x00, 0x00, 0x00,
  0x00, 0x00, 0x00, 0x00, 0x00, 0x00, 0x00, 0x00, 0x00, 0x00, 0x00, 0x00,
  0x00, 0x00, 0x00, 0x00, 0x00, 0x00, 0x00, 0x00, 0x00, 0x00, 0x00, 0x00,
  0x00, 0x00, 0x00, 0x00, 0x00, 0x00, 0x00, 0x00, 0x00, 0x00, 0x00, 0x00,
  0x00, 0x00, 0x00, 0x00, 0x00, 0x00, 0x00, 0x00, 0x00, 0x00, 0x00, 0x00,
  0x00, 0x00, 0x00, 0x00, 0x00, 0x00, 0x00, 0x00, 0x00, 0x00, 0x00, 0x00,
  0x00, 0x00, 0x00, 0x00, 0x00, 0x00, 0x00, 0x00, 0x00, 0x00, 0x00, 0x00,
  0x00, 0x00, 0x00, 0x00, 0x00, 0x00, 0x00, 0x00, 0x00, 0x00, 0x00, 0x00,
  0x00, 0x00, 0x00, 0x00, 0x00, 0x00, 0x00, 0x00, 0x00, 0x00, 0x00, 0x00,
  0x00, 0x00, 0x00, 0x00, 0x00, 0x00, 0x00, 0x00, 0x00, 0x00, 0x00, 0x00,
  0x00, 0x00, 0x00, 0x00, 0x00, 0x00, 0x00, 0x00, 0x00, 0x00, 0x00, 0x00,
  0x00, 0x00, 0x00, 0x00, 0x00, 0x00, 0x00, 0x00, 0x00, 0x00, 0x00, 0x00,
  0x00, 0x00, 0x00, 0x00, 0x00, 0x00, 0x00, 0x00, 0x00, 0x00, 0x00, 0x00,
  0x00, 0x00, 0x00, 0x00, 0x00, 0x00, 0x00, 0x00, 0x00, 0x00, 0x00, 0x00,
  0x00, 0x00, 0x00, 0x00, 0x00, 0x00, 0x00, 0x00, 0x00, 0x00, 0x00, 0x00,
  0x00, 0x00, 0x00, 0x00, 0x00, 0x00, 0x00, 0x00, 0x00, 0x00, 0x00, 0x00,
  0x00, 0x00, 0x00, 0x00, 0x00, 0x00, 0x00, 0x00, 0x00, 0x00, 0x00, 0x00,
  0x00, 0x00, 0x00, 0x00, 0x00, 0x00, 0x00, 0x00, 0x00, 0x00, 0x00, 0x00,
  0x00, 0x00, 0x00, 0x00, 0x00, 0x00, 0x00, 0x00, 0x00, 0x00, 0x00, 0x00,
  0x00, 0x00, 0x00, 0x00, 0x00, 0x00, 0x00, 0x00, 0x00, 0x00, 0x00, 0x00,
  0x00, 0x00, 0x00, 0x00, 0x00, 0x00, 0x00, 0x00, 0x00, 0x00, 0x00, 0x00,
  0x00, 0x00, 0x00, 0x00, 0x00, 0x00, 0x00, 0x00, 0x00, 0x00, 0x00, 0x00,
  0x00, 0x00, 0x00, 0x00, 0x00, 0x00, 0x00, 0x00, 0x00, 0x00, 0x00, 0x00,
  0x00, 0x00, 0x00, 0x00, 0x00, 0x00, 0x00, 0x00, 0x00, 0x00, 0x00, 0x00,
  0x00, 0x00, 0x00, 0x00, 0x00, 0x00, 0x00, 0x00, 0x00, 0x00, 0x00, 0x00,
  0x00, 0x00, 0x00, 0x00, 0x00, 0x00, 0x00, 0x00, 0x00, 0x00, 0x00, 0x00,
  0x00, 0x00, 0x00, 0x00, 0x00, 0x00, 0x00, 0x00, 0x00, 0x00, 0x00, 0x00,
  0x00, 0x00, 0x00, 0x00, 0x28, 0x00, 0x00, 0x00, 0xd8, 0xa5, 0xfc, 0x3a,
  0x03, 0x9e, 0xb5, 0x39, 0xae, 0x0c, 0x93, 0x3a, 0x42, 0x3e, 0xa0, 0x3a,
  0xfc, 0xeb, 0xf4, 0x3a, 0xaf, 0xa1, 0x96, 0x3a, 0x25, 0x54, 0x12, 0x3b,
  0x17, 0x91, 0xc1, 0x3a, 0x09, 0x3e, 0xc1, 0x3a, 0x1b, 0xfc, 0x92, 0x3a,
  0x1a, 0x8d, 0xcf, 0x3a, 0x4a, 0xcb, 0x57, 0x3a, 0xee, 0xce, 0xa1, 0x3a,
  0xb5, 0x5e, 0x80, 0x3a, 0xdc, 0x95, 0xec, 0x3a, 0xee, 0xe1, 0xb5, 0x3a,
  0x42, 0xad, 0xb4, 0x3a, 0xba, 0xb0, 0xd5, 0x3a, 0xc5, 0x3e, 0xf0, 0x3a,
  0x13, 0xb7, 0xa9, 0x3a, 0x7d, 0x62, 0xfb, 0x3a, 0xb3, 0x71, 0x98, 0x3a,
  0xc2, 0x42, 0x90, 0x3a, 0x41, 0x4e, 0x9f, 0x3a, 0xaf, 0x53, 0xd3, 0x3a,
  0x60, 0x10, 0xd8, 0x3a, 0xb2, 0x81, 0x84, 0x3a, 0xf7, 0x5c, 0x9b, 0x3a,
  0xb8, 0xe6, 0x77, 0x3a, 0x33, 0x1f, 0x0c, 0x3b, 0x3a, 0x96, 0xb5, 0x3a,
  0xfc, 0x64, 0x0e, 0x3b, 0x3d, 0x1d, 0xf0, 0x3a, 0x76, 0x02, 0xb6, 0x3a,
  0x32, 0x98, 0x90, 0x3a, 0x36, 0xbf, 0xa6, 0x3a, 0x48, 0xf5, 0xed, 0x3a,
  0x60, 0x54, 0xd1, 0x3a, 0x49, 0xd7, 0xac, 0x3a, 0x14, 0x4c, 0x6b, 0x3a,
  0x12, 0x00, 0x00, 0x00, 0x74, 0x66, 0x6c, 0x2e, 0x70, 0x73, 0x65, 0x75,
  0x64, 0x6f, 0x5f, 0x71, 0x63, 0x6f, 0x6e, 0x73, 0x74, 0x32, 0x00, 0x00,
  0x01, 0x00, 0x00, 0x00, 0x28, 0x00, 0x00, 0x00, 0xf6, 0xfe, 0xff, 0xff,
  0x00, 0x00, 0x00, 0x01, 0x14, 0x00, 0x00, 0x00, 0x34, 0x00, 0x00, 0x00,
  0x05, 0x00, 0x00, 0x00, 0x00, 0x00, 0x00, 0x09, 0x40, 0x00, 0x00, 0x00,
  0x9c, 0xff, 0xff, 0xff, 0x08, 0x00, 0x00, 0x00, 0x14, 0x00, 0x00, 0x00,
  0x01, 0x00, 0x00, 0x00, 0x00, 0x00, 0x00, 0x00, 0x00, 0x00, 0x00, 0x00,
  0x00, 0x00, 0x00, 0x00, 0x01, 0x00, 0x00, 0x00, 0x1d, 0x10, 0x4f, 0x3c,
  0x12, 0x00, 0x00, 0x00, 0x74, 0x66, 0x6c, 0x2e, 0x70, 0x73, 0x65, 0x75,
  0x64, 0x6f, 0x5f, 0x71, 0x63, 0x6f, 0x6e, 0x73, 0x74, 0x31, 0x00, 0x00,
  0x02, 0x00, 0x00, 0x00, 0x01, 0x00, 0x00, 0x00, 0x28, 0x00, 0x00, 0x00,
  0x5a, 0xff, 0xff, 0xff, 0x00, 0x00, 0x00, 0x01, 0x20, 0x00, 0x00, 0x00,
  0x3c, 0x00, 0x00, 0x00, 0x04, 0x00, 0x00, 0x00, 0x00, 0x00, 0x00, 0x02,
  0x48, 0x00, 0x00, 0x00, 0x0c, 0x00, 0x0c, 0x00, 0x00, 0x00, 0x00, 0x00,
  0x08, 0x00, 0x04, 0x00, 0x0c, 0x00, 0x00, 0x00, 0x08, 0x00, 0x00, 0x00,
  0x10, 0x00, 0x00, 0x00, 0x01, 0x00, 0x00, 0x00, 0x00, 0x00, 0x00, 0x00,
  0x00, 0x00, 0x00, 0x00, 0x01, 0x00, 0x00, 0x00, 0x93, 0xde, 0x50, 0x3b,
  0x11, 0x00, 0x00, 0x00, 0x74, 0x66, 0x6c, 0x2e, 0x70, 0x73, 0x65, 0x75,
  0x64, 0x6f, 0x5f, 0x71, 0x63, 0x6f, 0x6e, 0x73, 0x74, 0x00, 0x00, 0x00,
  0x01, 0x00, 0x00, 0x00, 0x01, 0x00, 0x00, 0x00, 0xc2, 0xff, 0xff, 0xff,
  0x00, 0x00, 0x00, 0x01, 0x14, 0x00, 0x00, 0x00, 0x14, 0x00, 0x00, 0x00,
  0x03, 0x00, 0x00, 0x00, 0x00, 0x00, 0x00, 0x02, 0x1c, 0x00, 0x00, 0x00,
  0x44, 0xff, 0xff, 0xff, 0x0f, 0x00, 0x00, 0x00, 0x61, 0x72, 0x69, 0x74,
  0x68, 0x2e, 0x63, 0x6f, 0x6e, 0x73, 0x74, 0x61, 0x6e, 0x74, 0x31, 0x00,
  0x01, 0x00, 0x00, 0x00, 0x02, 0x00, 0x00, 0x00, 0x00, 0x00, 0x16, 0x00,
  0x1c, 0x00, 0x18, 0x00, 0x17, 0x00, 0x10, 0x00, 0x0c, 0x00, 0x08, 0x00,
  0x00, 0x00, 0x00, 0x00, 0x00, 0x00, 0x07, 0x00, 0x16, 0x00, 0x00, 0x00,
  0x00, 0x00, 0x00, 0x01, 0x14, 0x00, 0x00, 0x00, 0x14, 0x00, 0x00, 0x00,
  0x02, 0x00, 0x00, 0x00, 0x00, 0x00, 0x00, 0x02, 0x1c, 0x00, 0x00, 0x00,
  0x98, 0xff, 0xff, 0xff, 0x0e, 0x00, 0x00, 0x00, 0x61, 0x72, 0x69, 0x74,
  0x68, 0x2e, 0x63, 0x6f, 0x6e, 0x73, 0x74, 0x61, 0x6e, 0x74, 0x00, 0x00,
  0x01, 0x00, 0x00, 0x00, 0x02, 0x00, 0x00, 0x00, 0x00, 0x00, 0x16, 0x00,
  0x1c, 0x00, 0x18, 0x00, 0x00, 0x00, 0x14, 0x00, 0x10, 0x00, 0x0c, 0x00,
  0x00, 0x00, 0x00, 0x00, 0x08, 0x00, 0x07, 0x00, 0x16, 0x00, 0x00, 0x00,
  0x00, 0x00, 0x00, 0x01, 0x14, 0x00, 0x00, 0x00, 0x28, 0x00, 0x00, 0x00,
  0x28, 0x00, 0x00, 0x00, 0x01, 0x00, 0x00, 0x00, 0x48, 0x00, 0x00, 0x00,
  0x04, 0x00, 0x00, 0x00, 0xff, 0xff, 0xff, 0xff, 0x7c, 0x00, 0x00, 0x00,
  0x81, 0x00, 0x00, 0x00, 0x01, 0x00, 0x00, 0x00, 0x04, 0x00, 0x04, 0x00,
  0x04, 0x00, 0x00, 0x00, 0x21, 0x00, 0x00, 0x00, 0x73, 0x65, 0x72, 0x76,
  0x69, 0x6e, 0x67, 0x5f, 0x64, 0x65, 0x66, 0x61, 0x75, 0x6c, 0x74, 0x5f,
  0x6b, 0x65, 0x72, 0x61, 0x73, 0x5f, 0x74, 0x65, 0x6e, 0x73, 0x6f, 0x72,
  0x5f, 0x38, 0x35, 0x3a, 0x30, 0x00, 0x00, 0x00, 0x04, 0x00, 0x00, 0x00,
  0x01, 0x00, 0x00, 0x00, 0x7c, 0x00, 0x00, 0x00, 0x81, 0x00, 0x00, 0x00,
  0x01, 0x00, 0x00, 0x00, 0x08, 0x00, 0x00, 0x00, 0xa4, 0x00, 0x00, 0x00,
  0x84, 0x00, 0x00, 0x00, 0x64, 0x00, 0x00, 0x00, 0x50, 0x00, 0x00, 0x00,
  0x40, 0x00, 0x00, 0x00, 0x2c, 0x00, 0x00, 0x00, 0x18, 0x00, 0x00, 0x00,
  0x04, 0x00, 0x00, 0x00, 0xa4, 0xff, 0xff, 0xff, 0x06, 0x00, 0x00, 0x00,
  0x02, 0x00, 0x00, 0x00, 0x00, 0x00, 0x00, 0x06, 0xb4, 0xff, 0xff, 0xff,
  0x0e, 0x00, 0x00, 0x00, 0x02, 0x00, 0x00, 0x00, 0x00, 0x00, 0x00, 0x0e,
  0xc4, 0xff, 0xff, 0xff, 0x09, 0x00, 0x00, 0x00, 0x04, 0x00, 0x00, 0x00,
  0x00, 0x00, 0x00, 0x09, 0xb8, 0xff, 0xff, 0xff, 0x16, 0x00, 0x00, 0x00,
  0x00, 0x00, 0x00, 0x16, 0xe0, 0xff, 0xff, 0xff, 0x11, 0x00, 0x00, 0x00,
  0x02, 0x00, 0x00, 0x00, 0x00, 0x00, 0x00, 0x11, 0xf0, 0xff, 0xff, 0xff,
  0x03, 0x00, 0x00, 0x00, 0x03, 0x00, 0x00, 0x00, 0x00, 0x00, 0x00, 0x03,
  0x0c, 0x00, 0x10, 0x00, 0x0f, 0x00, 0x00, 0x00, 0x08, 0x00, 0x04, 0x00,
  0x0c, 0x00, 0x00, 0x00, 0x17, 0x00, 0x00, 0x00, 0x03, 0x00, 0x00, 0x00,
  0x00, 0x00, 0x00, 0x17, 0x0c, 0x00, 0x0c, 0x00, 0x0b, 0x00, 0x00, 0x00,
  0x00, 0x00, 0x04, 0x00, 0x0c, 0x00, 0x00, 0x00, 0x72, 0x00, 0x00, 0x00,
  0x00, 0x00, 0x00, 0x72
};
unsigned int converted_model_tflite_len = 12232;
